{
  "version": "1.0",
  "truncation": null,
  "padding": null,
  "added_tokens": [
    {
      "id": 0,
      "content": "[UNK]",
      "single_word": false,
      "lstrip": false,
      "rstrip": false,
      "normalized": false,
      "special": true
    },
    {
      "id": 1,
      "content": "[CLS]",
      "single_word": false,
      "lstrip": false,
      "rstrip": false,
      "normalized": false,
      "special": true
    },
    {
      "id": 2,
      "content": "[SEP]",
      "single_word": false,
      "lstrip": false,
      "rstrip": false,
      "normalized": false,
      "special": true
    },
    {
      "id": 3,
      "content": "[PAD]",
      "single_word": false,
      "lstrip": false,
      "rstrip": false,
      "normalized": false,
      "special": true
    },
    {
      "id": 4,
      "content": "[START]",
      "single_word": false,
      "lstrip": false,
      "rstrip": false,
      "normalized": false,
      "special": true
    },
    {
      "id": 5,
      "content": "[EOS]",
      "single_word": false,
      "lstrip": false,
      "rstrip": false,
      "normalized": false,
      "special": true
    }
  ],
  "normalizer": null,
  "pre_tokenizer": {
    "type": "BertPreTokenizer"
  },
  "post_processor": null,
  "decoder": null,
  "model": {
    "type": "WordPiece",
    "unk_token": "[UNK]",
    "continuing_subword_prefix": "##",
    "max_input_chars_per_word": 100,
    "vocab": {
      "[UNK]": 0,
      "[CLS]": 1,
      "[SEP]": 2,
      "[PAD]": 3,
      "[START]": 4,
      "[EOS]": 5,
      "!": 6,
      "\"": 7,
      "$": 8,
      "%": 9,
      "&": 10,
      "'": 11,
      "(": 12,
      ")": 13,
      "*": 14,
      "+": 15,
      ",": 16,
      "-": 17,
      ".": 18,
      "/": 19,
      "0": 20,
      "1": 21,
      "2": 22,
      "3": 23,
      "4": 24,
      "5": 25,
      "6": 26,
      "7": 27,
      "8": 28,
      "9": 29,
      ":": 30,
      ";": 31,
      "<": 32,
      "=": 33,
      ">": 34,
      "?": 35,
      "@": 36,
      "A": 37,
      "B": 38,
      "C": 39,
      "D": 40,
      "E": 41,
      "F": 42,
      "G": 43,
      "H": 44,
      "I": 45,
      "J": 46,
      "K": 47,
      "L": 48,
      "M": 49,
      "N": 50,
      "O": 51,
      "P": 52,
      "Q": 53,
      "R": 54,
      "S": 55,
      "T": 56,
      "U": 57,
      "V": 58,
      "W": 59,
      "X": 60,
      "Y": 61,
      "Z": 62,
      "[": 63,
      "\\": 64,
      "]": 65,
      "^": 66,
      "_": 67,
      "`": 68,
      "a": 69,
      "b": 70,
      "c": 71,
      "d": 72,
      "e": 73,
      "f": 74,
      "g": 75,
      "h": 76,
      "i": 77,
      "j": 78,
      "k": 79,
      "l": 80,
      "m": 81,
      "n": 82,
      "o": 83,
      "p": 84,
      "q": 85,
      "r": 86,
      "s": 87,
      "t": 88,
      "u": 89,
      "v": 90,
      "w": 91,
      "x": 92,
      "y": 93,
      "z": 94,
      "|": 95,
      "~": 96,
      "£": 97,
      "¥": 98,
      "§": 99,
      "¬": 100,
      "­": 101,
      "®": 102,
      "°": 103,
      "±": 104,
      "²": 105,
      "³": 106,
      "´": 107,
      "µ": 108,
      "·": 109,
      "º": 110,
      "¾": 111,
      "Ç": 112,
      "É": 113,
      "Î": 114,
      "Ö": 115,
      "×": 116,
      "Ø": 117,
      "à": 118,
      "á": 119,
      "â": 120,
      "ã": 121,
      "ä": 122,
      "å": 123,
      "ç": 124,
      "è": 125,
      "é": 126,
      "ê": 127,
      "í": 128,
      "ï": 129,
      "ð": 130,
      "ñ": 131,
      "ó": 132,
      "ô": 133,
      "ö": 134,
      "ø": 135,
      "ú": 136,
      "û": 137,
      "ü": 138,
      "ā": 139,
      "ć": 140,
      "ē": 141,
      "ě": 142,
      "ī": 143,
      "İ": 144,
      "ı": 145,
      "Ō": 146,
      "ŏ": 147,
      "ş": 148,
      "š": 149,
      "ơ": 150,
      "ư": 151,
      "ǎ": 152,
      "˚": 153,
      "Β": 154,
      "Ω": 155,
      "δ": 156,
      "μ": 157,
      "ᅟ": 158,
      "ᅥ": 159,
      "ᆪ": 160,
      "ầ": 161,
      "ỏ": 162,
      "ố": 163,
      "​": 164,
      "‐": 165,
      "–": 166,
      "—": 167,
      "‘": 168,
      "’": 169,
      "“": 170,
      "”": 171,
      "•": 172,
      "․": 173,
      "…": 174,
      "‬": 175,
      "‭": 176,
      "′": 177,
      "₁": 178,
      "₂": 179,
      "₃": 180,
      "₩": 181,
      "€": 182,
      "⃗": 183,
      "℃": 184,
      "℉": 185,
      "ℓ": 186,
      "Ⅰ": 187,
      "Ⅱ": 188,
      "Ⅳ": 189,
      "→": 190,
      "∙": 191,
      "∼": 192,
      "≡": 193,
      "ⓧ": 194,
      "□": 195,
      "△": 196,
      "○": 197,
      "➋": 198,
      "➌": 199,
      "➍": 200,
      "➎": 201,
      "➏": 202,
      "➡": 203,
      "「": 204,
      "」": 205,
      "・": 206,
      "ㄷ": 207,
      "ㄹ": 208,
      "ㅅ": 209,
      "ㅆ": 210,
      "ㅇ": 211,
      "ㅈ": 212,
      "ㅏ": 213,
      "ㅔ": 214,
      "ㅠ": 215,
      "ㅡ": 216,
      "ㆍ": 217,
      "㈜": 218,
      "㎈": 219,
      "㎏": 220,
      "㎛": 221,
      "㎜": 222,
      "㎝": 223,
      "㎞": 224,
      "㎡": 225,
      "㎢": 226,
      "㎥": 227,
      "㏈": 228,
      "多": 229,
      "情": 230,
      "故": 231,
      "社": 232,
      "美": 233,
      "說": 234,
      "가": 235,
      "각": 236,
      "간": 237,
      "갇": 238,
      "갈": 239,
      "갉": 240,
      "감": 241,
      "갑": 242,
      "값": 243,
      "갓": 244,
      "갔": 245,
      "강": 246,
      "갖": 247,
      "갗": 248,
      "같": 249,
      "갚": 250,
      "갛": 251,
      "개": 252,
      "객": 253,
      "갠": 254,
      "갤": 255,
      "갬": 256,
      "갭": 257,
      "갯": 258,
      "갰": 259,
      "갱": 260,
      "갸": 261,
      "걀": 262,
      "걍": 263,
      "걔": 264,
      "걘": 265,
      "거": 266,
      "걱": 267,
      "건": 268,
      "걷": 269,
      "걸": 270,
      "검": 271,
      "겁": 272,
      "것": 273,
      "겄": 274,
      "겆": 275,
      "겉": 276,
      "겊": 277,
      "겋": 278,
      "게": 279,
      "겐": 280,
      "겔": 281,
      "겜": 282,
      "겟": 283,
      "겠": 284,
      "겡": 285,
      "겨": 286,
      "격": 287,
      "겪": 288,
      "견": 289,
      "결": 290,
      "겸": 291,
      "겹": 292,
      "겼": 293,
      "경": 294,
      "곁": 295,
      "계": 296,
      "곗": 297,
      "곘": 298,
      "고": 299,
      "곡": 300,
      "곤": 301,
      "곧": 302,
      "골": 303,
      "곪": 304,
      "곯": 305,
      "곰": 306,
      "곱": 307,
      "곳": 308,
      "공": 309,
      "곶": 310,
      "과": 311,
      "곽": 312,
      "관": 313,
      "괂": 314,
      "괄": 315,
      "괌": 316,
      "괏": 317,
      "광": 318,
      "괘": 319,
      "괜": 320,
      "괭": 321,
      "괴": 322,
      "굉": 323,
      "교": 324,
      "굣": 325,
      "굥": 326,
      "구": 327,
      "국": 328,
      "군": 329,
      "굳": 330,
      "굴": 331,
      "굵": 332,
      "굶": 333,
      "굼": 334,
      "굽": 335,
      "굿": 336,
      "궁": 337,
      "궂": 338,
      "궃": 339,
      "궈": 340,
      "권": 341,
      "궐": 342,
      "궜": 343,
      "궤": 344,
      "귀": 345,
      "귄": 346,
      "귈": 347,
      "귐": 348,
      "귑": 349,
      "귓": 350,
      "규": 351,
      "균": 352,
      "귤": 353,
      "그": 354,
      "극": 355,
      "근": 356,
      "글": 357,
      "긁": 358,
      "금": 359,
      "급": 360,
      "긋": 361,
      "긍": 362,
      "기": 363,
      "긴": 364,
      "긷": 365,
      "길": 366,
      "김": 367,
      "깁": 368,
      "깃": 369,
      "깄": 370,
      "깅": 371,
      "깊": 372,
      "까": 373,
      "깍": 374,
      "깎": 375,
      "깐": 376,
      "깔": 377,
      "깜": 378,
      "깝": 379,
      "깟": 380,
      "깠": 381,
      "깡": 382,
      "깥": 383,
      "깨": 384,
      "깬": 385,
      "깰": 386,
      "깹": 387,
      "깻": 388,
      "깼": 389,
      "깽": 390,
      "꺅": 391,
      "꺠": 392,
      "꺼": 393,
      "꺽": 394,
      "꺾": 395,
      "껀": 396,
      "껄": 397,
      "껌": 398,
      "껍": 399,
      "껏": 400,
      "껐": 401,
      "껑": 402,
      "께": 403,
      "껫": 404,
      "껴": 405,
      "꼈": 406,
      "꼐": 407,
      "꼬": 408,
      "꼭": 409,
      "꼰": 410,
      "꼴": 411,
      "꼼": 412,
      "꼽": 413,
      "꼿": 414,
      "꽁": 415,
      "꽂": 416,
      "꽃": 417,
      "꽈": 418,
      "꽉": 419,
      "꽝": 420,
      "꽤": 421,
      "꽹": 422,
      "꾀": 423,
      "꾄": 424,
      "꾈": 425,
      "꾳": 426,
      "꾸": 427,
      "꾹": 428,
      "꾼": 429,
      "꿀": 430,
      "꿇": 431,
      "꿈": 432,
      "꿉": 433,
      "꿋": 434,
      "꿍": 435,
      "꿔": 436,
      "꿨": 437,
      "꿩": 438,
      "꿰": 439,
      "꿴": 440,
      "뀌": 441,
      "뀐": 442,
      "뀔": 443,
      "뀜": 444,
      "뀝": 445,
      "끄": 446,
      "끈": 447,
      "끊": 448,
      "끌": 449,
      "끓": 450,
      "끔": 451,
      "끕": 452,
      "끗": 453,
      "끙": 454,
      "끝": 455,
      "끼": 456,
      "끽": 457,
      "낀": 458,
      "낄": 459,
      "낌": 460,
      "낍": 461,
      "낑": 462,
      "나": 463,
      "낙": 464,
      "낚": 465,
      "난": 466,
      "낟": 467,
      "날": 468,
      "낡": 469,
      "남": 470,
      "납": 471,
      "낫": 472,
      "났": 473,
      "낭": 474,
      "낮": 475,
      "낯": 476,
      "낱": 477,
      "낳": 478,
      "내": 479,
      "낵": 480,
      "낸": 481,
      "낼": 482,
      "냄": 483,
      "냅": 484,
      "냇": 485,
      "냈": 486,
      "냉": 487,
      "냐": 488,
      "냑": 489,
      "냔": 490,
      "냘": 491,
      "냥": 492,
      "너": 493,
      "넉": 494,
      "넋": 495,
      "넌": 496,
      "널": 497,
      "넓": 498,
      "넘": 499,
      "넙": 500,
      "넛": 501,
      "넜": 502,
      "넝": 503,
      "넣": 504,
      "네": 505,
      "넥": 506,
      "넨": 507,
      "넬": 508,
      "넴": 509,
      "넷": 510,
      "넸": 511,
      "녀": 512,
      "녁": 513,
      "년": 514,
      "녈": 515,
      "념": 516,
      "녔": 517,
      "녕": 518,
      "녘": 519,
      "녜": 520,
      "노": 521,
      "녹": 522,
      "논": 523,
      "놀": 524,
      "놈": 525,
      "놉": 526,
      "놋": 527,
      "농": 528,
      "높": 529,
      "놓": 530,
      "놔": 531,
      "놨": 532,
      "뇄": 533,
      "뇌": 534,
      "뇜": 535,
      "뇨": 536,
      "뇽": 537,
      "누": 538,
      "눅": 539,
      "눈": 540,
      "눌": 541,
      "눔": 542,
      "눕": 543,
      "눗": 544,
      "눠": 545,
      "눴": 546,
      "뉘": 547,
      "뉜": 548,
      "뉠": 549,
      "뉩": 550,
      "뉴": 551,
      "늄": 552,
      "늉": 553,
      "느": 554,
      "늑": 555,
      "는": 556,
      "늘": 557,
      "늙": 558,
      "늠": 559,
      "늡": 560,
      "능": 561,
      "늦": 562,
      "늪": 563,
      "늬": 564,
      "니": 565,
      "닉": 566,
      "닌": 567,
      "닏": 568,
      "닐": 569,
      "님": 570,
      "닙": 571,
      "닛": 572,
      "닝": 573,
      "닢": 574,
      "다": 575,
      "닥": 576,
      "닦": 577,
      "단": 578,
      "닫": 579,
      "달": 580,
      "닭": 581,
      "닮": 582,
      "닳": 583,
      "담": 584,
      "답": 585,
      "닷": 586,
      "당": 587,
      "닻": 588,
      "닼": 589,
      "닿": 590,
      "대": 591,
      "댁": 592,
      "댄": 593,
      "댈": 594,
      "댐": 595,
      "댑": 596,
      "댓": 597,
      "댔": 598,
      "댕": 599,
      "댜": 600,
      "더": 601,
      "덕": 602,
      "덖": 603,
      "던": 604,
      "덜": 605,
      "덟": 606,
      "덤": 607,
      "덥": 608,
      "덧": 609,
      "덩": 610,
      "덫": 611,
      "덮": 612,
      "데": 613,
      "덱": 614,
      "덴": 615,
      "델": 616,
      "뎀": 617,
      "뎁": 618,
      "뎃": 619,
      "뎄": 620,
      "뎅": 621,
      "뎌": 622,
      "뎠": 623,
      "도": 624,
      "독": 625,
      "돈": 626,
      "돋": 627,
      "돌": 628,
      "돍": 629,
      "돎": 630,
      "돔": 631,
      "돕": 632,
      "돗": 633,
      "동": 634,
      "돛": 635,
      "돤": 636,
      "돨": 637,
      "돼": 638,
      "됀": 639,
      "됍": 640,
      "됐": 641,
      "되": 642,
      "된": 643,
      "될": 644,
      "됨": 645,
      "됩": 646,
      "됬": 647,
      "두": 648,
      "둑": 649,
      "둔": 650,
      "둘": 651,
      "둠": 652,
      "둡": 653,
      "둣": 654,
      "둥": 655,
      "둬": 656,
      "뒀": 657,
      "뒤": 658,
      "뒨": 659,
      "뒷": 660,
      "뒹": 661,
      "듀": 662,
      "듄": 663,
      "듈": 664,
      "듐": 665,
      "드": 666,
      "득": 667,
      "든": 668,
      "듣": 669,
      "들": 670,
      "듦": 671,
      "듬": 672,
      "듭": 673,
      "듯": 674,
      "등": 675,
      "디": 676,
      "딕": 677,
      "딘": 678,
      "딛": 679,
      "딜": 680,
      "딤": 681,
      "딥": 682,
      "딧": 683,
      "딨": 684,
      "딩": 685,
      "딪": 686,
      "딫": 687,
      "따": 688,
      "딱": 689,
      "딴": 690,
      "딸": 691,
      "땀": 692,
      "땁": 693,
      "땄": 694,
      "땅": 695,
      "땋": 696,
      "때": 697,
      "땐": 698,
      "땔": 699,
      "땜": 700,
      "땠": 701,
      "땡": 702,
      "떄": 703,
      "떠": 704,
      "떡": 705,
      "떤": 706,
      "떨": 707,
      "떫": 708,
      "떱": 709,
      "떳": 710,
      "떴": 711,
      "떵": 712,
      "떻": 713,
      "떼": 714,
      "뗀": 715,
      "뗄": 716,
      "뗍": 717,
      "뗏": 718,
      "뗐": 719,
      "뗑": 720,
      "또": 721,
      "똑": 722,
      "똘": 723,
      "똠": 724,
      "똥": 725,
      "똬": 726,
      "뚜": 727,
      "뚝": 728,
      "뚤": 729,
      "뚫": 730,
      "뚱": 731,
      "뛰": 732,
      "뛴": 733,
      "뛸": 734,
      "뜀": 735,
      "뜁": 736,
      "뜨": 737,
      "뜩": 738,
      "뜬": 739,
      "뜯": 740,
      "뜰": 741,
      "뜸": 742,
      "뜹": 743,
      "뜻": 744,
      "띄": 745,
      "띈": 746,
      "띌": 747,
      "띔": 748,
      "띕": 749,
      "띠": 750,
      "띡": 751,
      "띤": 752,
      "띨": 753,
      "띱": 754,
      "띵": 755,
      "라": 756,
      "락": 757,
      "란": 758,
      "랄": 759,
      "람": 760,
      "랍": 761,
      "랏": 762,
      "랐": 763,
      "랑": 764,
      "랖": 765,
      "랗": 766,
      "래": 767,
      "랙": 768,
      "랜": 769,
      "랠": 770,
      "램": 771,
      "랩": 772,
      "랫": 773,
      "랬": 774,
      "랭": 775,
      "랴": 776,
      "략": 777,
      "량": 778,
      "러": 779,
      "럭": 780,
      "런": 781,
      "럴": 782,
      "럼": 783,
      "럽": 784,
      "럿": 785,
      "렀": 786,
      "렁": 787,
      "렇": 788,
      "레": 789,
      "렉": 790,
      "렌": 791,
      "렐": 792,
      "렘": 793,
      "렙": 794,
      "렛": 795,
      "렜": 796,
      "렝": 797,
      "려": 798,
      "력": 799,
      "련": 800,
      "렬": 801,
      "렴": 802,
      "렵": 803,
      "렷": 804,
      "렸": 805,
      "령": 806,
      "례": 807,
      "로": 808,
      "록": 809,
      "론": 810,
      "롣": 811,
      "롤": 812,
      "롬": 813,
      "롭": 814,
      "롯": 815,
      "롱": 816,
      "롹": 817,
      "뢰": 818,
      "료": 819,
      "룟": 820,
      "룡": 821,
      "루": 822,
      "룩": 823,
      "룬": 824,
      "룰": 825,
      "룸": 826,
      "룹": 827,
      "룻": 828,
      "룽": 829,
      "뤄": 830,
      "뤘": 831,
      "뤼": 832,
      "류": 833,
      "륙": 834,
      "륜": 835,
      "률": 836,
      "륨": 837,
      "륫": 838,
      "륭": 839,
      "르": 840,
      "륵": 841,
      "른": 842,
      "를": 843,
      "름": 844,
      "릅": 845,
      "릇": 846,
      "릉": 847,
      "릎": 848,
      "릐": 849,
      "리": 850,
      "릭": 851,
      "린": 852,
      "릴": 853,
      "림": 854,
      "립": 855,
      "릿": 856,
      "링": 857,
      "마": 858,
      "막": 859,
      "만": 860,
      "많": 861,
      "맏": 862,
      "말": 863,
      "맑": 864,
      "맘": 865,
      "맙": 866,
      "맛": 867,
      "망": 868,
      "맞": 869,
      "맟": 870,
      "맡": 871,
      "맣": 872,
      "매": 873,
      "맥": 874,
      "맨": 875,
      "맬": 876,
      "맴": 877,
      "맵": 878,
      "맷": 879,
      "맸": 880,
      "맹": 881,
      "맺": 882,
      "먀": 883,
      "먄": 884,
      "머": 885,
      "먹": 886,
      "먼": 887,
      "멀": 888,
      "멈": 889,
      "멉": 890,
      "멋": 891,
      "멍": 892,
      "멎": 893,
      "멓": 894,
      "메": 895,
      "멕": 896,
      "멘": 897,
      "멜": 898,
      "멤": 899,
      "멥": 900,
      "멧": 901,
      "멨": 902,
      "멩": 903,
      "며": 904,
      "면": 905,
      "멸": 906,
      "몄": 907,
      "명": 908,
      "몆": 909,
      "몇": 910,
      "모": 911,
      "목": 912,
      "몫": 913,
      "몬": 914,
      "몰": 915,
      "몸": 916,
      "몹": 917,
      "못": 918,
      "몽": 919,
      "뫼": 920,
      "묘": 921,
      "묠": 922,
      "무": 923,
      "묵": 924,
      "묶": 925,
      "문": 926,
      "묻": 927,
      "물": 928,
      "묽": 929,
      "뭄": 930,
      "뭅": 931,
      "뭇": 932,
      "뭉": 933,
      "뭍": 934,
      "뭐": 935,
      "뭔": 936,
      "뭘": 937,
      "뭡": 938,
      "뭣": 939,
      "뮈": 940,
      "뮌": 941,
      "뮐": 942,
      "뮤": 943,
      "뮨": 944,
      "뮬": 945,
      "뮴": 946,
      "므": 947,
      "믄": 948,
      "믈": 949,
      "믐": 950,
      "미": 951,
      "믹": 952,
      "민": 953,
      "믿": 954,
      "밀": 955,
      "밈": 956,
      "밉": 957,
      "밋": 958,
      "밌": 959,
      "밍": 960,
      "밎": 961,
      "및": 962,
      "밑": 963,
      "바": 964,
      "박": 965,
      "밖": 966,
      "반": 967,
      "받": 968,
      "발": 969,
      "밝": 970,
      "밟": 971,
      "밤": 972,
      "밥": 973,
      "밧": 974,
      "방": 975,
      "밭": 976,
      "배": 977,
      "백": 978,
      "밴": 979,
      "밸": 980,
      "뱀": 981,
      "뱃": 982,
      "뱅": 983,
      "뱉": 984,
      "버": 985,
      "벅": 986,
      "번": 987,
      "벌": 988,
      "범": 989,
      "법": 990,
      "벗": 991,
      "벙": 992,
      "벚": 993,
      "벛": 994,
      "베": 995,
      "벡": 996,
      "벤": 997,
      "벨": 998,
      "벳": 999,
      "벴": 1000,
      "벵": 1001,
      "벼": 1002,
      "벽": 1003,
      "변": 1004,
      "별": 1005,
      "볍": 1006,
      "볐": 1007,
      "병": 1008,
      "볕": 1009,
      "보": 1010,
      "복": 1011,
      "볶": 1012,
      "본": 1013,
      "볼": 1014,
      "봄": 1015,
      "봅": 1016,
      "봇": 1017,
      "봉": 1018,
      "봐": 1019,
      "봣": 1020,
      "봤": 1021,
      "봬": 1022,
      "뵀": 1023,
      "뵈": 1024,
      "뵌": 1025,
      "뵐": 1026,
      "뵙": 1027,
      "부": 1028,
      "북": 1029,
      "분": 1030,
      "붇": 1031,
      "불": 1032,
      "붉": 1033,
      "붐": 1034,
      "붑": 1035,
      "붓": 1036,
      "붕": 1037,
      "붙": 1038,
      "뷔": 1039,
      "뷧": 1040,
      "뷰": 1041,
      "뷴": 1042,
      "뷸": 1043,
      "브": 1044,
      "븐": 1045,
      "블": 1046,
      "븕": 1047,
      "비": 1048,
      "빅": 1049,
      "빈": 1050,
      "빌": 1051,
      "빔": 1052,
      "빕": 1053,
      "빗": 1054,
      "빙": 1055,
      "빚": 1056,
      "빛": 1057,
      "빠": 1058,
      "빡": 1059,
      "빤": 1060,
      "빨": 1061,
      "빳": 1062,
      "빴": 1063,
      "빵": 1064,
      "빻": 1065,
      "빼": 1066,
      "빽": 1067,
      "뺀": 1068,
      "뺄": 1069,
      "뺌": 1070,
      "뺍": 1071,
      "뺏": 1072,
      "뺐": 1073,
      "뺑": 1074,
      "뺨": 1075,
      "뺵": 1076,
      "뻐": 1077,
      "뻑": 1078,
      "뻔": 1079,
      "뻗": 1080,
      "뻘": 1081,
      "뻣": 1082,
      "뻤": 1083,
      "뻥": 1084,
      "뻬": 1085,
      "뼈": 1086,
      "뼉": 1087,
      "뼘": 1088,
      "뼛": 1089,
      "뽀": 1090,
      "뽁": 1091,
      "뽈": 1092,
      "뽐": 1093,
      "뽑": 1094,
      "뽕": 1095,
      "뾰": 1096,
      "뿅": 1097,
      "뿌": 1098,
      "뿍": 1099,
      "뿐": 1100,
      "뿔": 1101,
      "뿜": 1102,
      "쁘": 1103,
      "쁜": 1104,
      "쁠": 1105,
      "쁨": 1106,
      "쁩": 1107,
      "삐": 1108,
      "삑": 1109,
      "삔": 1110,
      "삘": 1111,
      "사": 1112,
      "삭": 1113,
      "삯": 1114,
      "산": 1115,
      "살": 1116,
      "삶": 1117,
      "삻": 1118,
      "삼": 1119,
      "삽": 1120,
      "삿": 1121,
      "샀": 1122,
      "상": 1123,
      "샅": 1124,
      "새": 1125,
      "색": 1126,
      "샌": 1127,
      "샐": 1128,
      "샘": 1129,
      "샙": 1130,
      "샛": 1131,
      "샜": 1132,
      "생": 1133,
      "샤": 1134,
      "샥": 1135,
      "샨": 1136,
      "샬": 1137,
      "샴": 1138,
      "샵": 1139,
      "샷": 1140,
      "샹": 1141,
      "샾": 1142,
      "섀": 1143,
      "섕": 1144,
      "서": 1145,
      "석": 1146,
      "섞": 1147,
      "선": 1148,
      "섣": 1149,
      "설": 1150,
      "섬": 1151,
      "섭": 1152,
      "섯": 1153,
      "섰": 1154,
      "성": 1155,
      "세": 1156,
      "섹": 1157,
      "센": 1158,
      "셀": 1159,
      "셈": 1160,
      "셉": 1161,
      "셋": 1162,
      "셌": 1163,
      "셔": 1164,
      "션": 1165,
      "셜": 1166,
      "셧": 1167,
      "셨": 1168,
      "셩": 1169,
      "셰": 1170,
      "셸": 1171,
      "소": 1172,
      "속": 1173,
      "손": 1174,
      "솔": 1175,
      "솜": 1176,
      "솝": 1177,
      "솟": 1178,
      "송": 1179,
      "솥": 1180,
      "솨": 1181,
      "쇄": 1182,
      "쇠": 1183,
      "쇤": 1184,
      "쇳": 1185,
      "쇼": 1186,
      "숀": 1187,
      "숄": 1188,
      "숍": 1189,
      "숏": 1190,
      "숑": 1191,
      "숖": 1192,
      "수": 1193,
      "숙": 1194,
      "순": 1195,
      "숟": 1196,
      "술": 1197,
      "숨": 1198,
      "숩": 1199,
      "숫": 1200,
      "숭": 1201,
      "숯": 1202,
      "숱": 1203,
      "숲": 1204,
      "숴": 1205,
      "쉈": 1206,
      "쉐": 1207,
      "쉑": 1208,
      "쉔": 1209,
      "쉘": 1210,
      "쉠": 1211,
      "쉬": 1212,
      "쉰": 1213,
      "쉴": 1214,
      "쉼": 1215,
      "쉽": 1216,
      "쉿": 1217,
      "슈": 1218,
      "슐": 1219,
      "슘": 1220,
      "슛": 1221,
      "슝": 1222,
      "스": 1223,
      "슥": 1224,
      "슨": 1225,
      "슬": 1226,
      "슭": 1227,
      "슴": 1228,
      "습": 1229,
      "슷": 1230,
      "승": 1231,
      "슽": 1232,
      "시": 1233,
      "식": 1234,
      "신": 1235,
      "싣": 1236,
      "실": 1237,
      "싫": 1238,
      "심": 1239,
      "십": 1240,
      "싯": 1241,
      "싱": 1242,
      "싶": 1243,
      "싸": 1244,
      "싹": 1245,
      "싼": 1246,
      "쌀": 1247,
      "쌈": 1248,
      "쌉": 1249,
      "쌌": 1250,
      "쌍": 1251,
      "쌓": 1252,
      "쌔": 1253,
      "쌤": 1254,
      "쌩": 1255,
      "쌰": 1256,
      "써": 1257,
      "썩": 1258,
      "썬": 1259,
      "썰": 1260,
      "썸": 1261,
      "썹": 1262,
      "썼": 1263,
      "썽": 1264,
      "쎄": 1265,
      "쎈": 1266,
      "쏘": 1267,
      "쏙": 1268,
      "쏜": 1269,
      "쏟": 1270,
      "쏠": 1271,
      "쏨": 1272,
      "쏩": 1273,
      "쏭": 1274,
      "쏴": 1275,
      "쐈": 1276,
      "쐐": 1277,
      "쐬": 1278,
      "쐰": 1279,
      "쐴": 1280,
      "쑈": 1281,
      "쑤": 1282,
      "쑥": 1283,
      "쑨": 1284,
      "쑹": 1285,
      "쓰": 1286,
      "쓱": 1287,
      "쓴": 1288,
      "쓸": 1289,
      "씀": 1290,
      "씁": 1291,
      "씌": 1292,
      "씨": 1293,
      "씩": 1294,
      "씬": 1295,
      "씰": 1296,
      "씸": 1297,
      "씹": 1298,
      "씻": 1299,
      "씽": 1300,
      "아": 1301,
      "악": 1302,
      "안": 1303,
      "앉": 1304,
      "않": 1305,
      "알": 1306,
      "앎": 1307,
      "앓": 1308,
      "암": 1309,
      "압": 1310,
      "앗": 1311,
      "았": 1312,
      "앙": 1313,
      "앚": 1314,
      "앞": 1315,
      "애": 1316,
      "액": 1317,
      "앤": 1318,
      "앨": 1319,
      "앰": 1320,
      "앱": 1321,
      "앳": 1322,
      "앴": 1323,
      "앵": 1324,
      "야": 1325,
      "약": 1326,
      "얀": 1327,
      "얄": 1328,
      "얇": 1329,
      "얌": 1330,
      "얍": 1331,
      "얏": 1332,
      "얐": 1333,
      "양": 1334,
      "얕": 1335,
      "얗": 1336,
      "얘": 1337,
      "어": 1338,
      "억": 1339,
      "언": 1340,
      "얹": 1341,
      "얻": 1342,
      "얼": 1343,
      "얽": 1344,
      "엄": 1345,
      "업": 1346,
      "없": 1347,
      "엇": 1348,
      "었": 1349,
      "엉": 1350,
      "엊": 1351,
      "엌": 1352,
      "엎": 1353,
      "에": 1354,
      "엑": 1355,
      "엔": 1356,
      "엘": 1357,
      "엠": 1358,
      "엡": 1359,
      "엣": 1360,
      "엥": 1361,
      "여": 1362,
      "역": 1363,
      "엮": 1364,
      "연": 1365,
      "열": 1366,
      "엷": 1367,
      "염": 1368,
      "엽": 1369,
      "엾": 1370,
      "엿": 1371,
      "였": 1372,
      "영": 1373,
      "옅": 1374,
      "옆": 1375,
      "옇": 1376,
      "예": 1377,
      "옌": 1378,
      "옐": 1379,
      "옙": 1380,
      "옛": 1381,
      "오": 1382,
      "옥": 1383,
      "온": 1384,
      "올": 1385,
      "옮": 1386,
      "옳": 1387,
      "옴": 1388,
      "옵": 1389,
      "옷": 1390,
      "옸": 1391,
      "옹": 1392,
      "옻": 1393,
      "와": 1394,
      "왁": 1395,
      "완": 1396,
      "왈": 1397,
      "왐": 1398,
      "왑": 1399,
      "왓": 1400,
      "왔": 1401,
      "왕": 1402,
      "왜": 1403,
      "왠": 1404,
      "외": 1405,
      "왼": 1406,
      "요": 1407,
      "욕": 1408,
      "욘": 1409,
      "욜": 1410,
      "욤": 1411,
      "욥": 1412,
      "욧": 1413,
      "용": 1414,
      "우": 1415,
      "욱": 1416,
      "운": 1417,
      "울": 1418,
      "움": 1419,
      "웁": 1420,
      "웃": 1421,
      "웅": 1422,
      "워": 1423,
      "웍": 1424,
      "원": 1425,
      "웓": 1426,
      "월": 1427,
      "웜": 1428,
      "웟": 1429,
      "웠": 1430,
      "웡": 1431,
      "웨": 1432,
      "웩": 1433,
      "웬": 1434,
      "웰": 1435,
      "웸": 1436,
      "웹": 1437,
      "웽": 1438,
      "위": 1439,
      "윅": 1440,
      "윈": 1441,
      "윌": 1442,
      "윔": 1443,
      "윕": 1444,
      "윗": 1445,
      "윙": 1446,
      "유": 1447,
      "육": 1448,
      "윤": 1449,
      "율": 1450,
      "윳": 1451,
      "융": 1452,
      "윷": 1453,
      "으": 1454,
      "윽": 1455,
      "은": 1456,
      "을": 1457,
      "읊": 1458,
      "음": 1459,
      "읍": 1460,
      "응": 1461,
      "의": 1462,
      "읩": 1463,
      "이": 1464,
      "익": 1465,
      "인": 1466,
      "읹": 1467,
      "일": 1468,
      "읽": 1469,
      "잃": 1470,
      "임": 1471,
      "입": 1472,
      "잇": 1473,
      "있": 1474,
      "잉": 1475,
      "잊": 1476,
      "잌": 1477,
      "잎": 1478,
      "자": 1479,
      "작": 1480,
      "잔": 1481,
      "잖": 1482,
      "잘": 1483,
      "잠": 1484,
      "잡": 1485,
      "잣": 1486,
      "잤": 1487,
      "장": 1488,
      "잦": 1489,
      "재": 1490,
      "잭": 1491,
      "잰": 1492,
      "잴": 1493,
      "잼": 1494,
      "잽": 1495,
      "잿": 1496,
      "쟀": 1497,
      "쟁": 1498,
      "쟈": 1499,
      "쟤": 1500,
      "쟨": 1501,
      "저": 1502,
      "적": 1503,
      "전": 1504,
      "절": 1505,
      "젊": 1506,
      "점": 1507,
      "접": 1508,
      "젓": 1509,
      "젔": 1510,
      "정": 1511,
      "젖": 1512,
      "제": 1513,
      "젝": 1514,
      "젠": 1515,
      "젤": 1516,
      "젬": 1517,
      "젯": 1518,
      "져": 1519,
      "젹": 1520,
      "젼": 1521,
      "졌": 1522,
      "졍": 1523,
      "조": 1524,
      "족": 1525,
      "존": 1526,
      "졸": 1527,
      "좀": 1528,
      "좁": 1529,
      "종": 1530,
      "좆": 1531,
      "좇": 1532,
      "좋": 1533,
      "좌": 1534,
      "죄": 1535,
      "죗": 1536,
      "죠": 1537,
      "죤": 1538,
      "주": 1539,
      "죽": 1540,
      "준": 1541,
      "줄": 1542,
      "줌": 1543,
      "줍": 1544,
      "줏": 1545,
      "중": 1546,
      "줒": 1547,
      "줘": 1548,
      "줬": 1549,
      "쥐": 1550,
      "쥔": 1551,
      "쥘": 1552,
      "쥠": 1553,
      "쥬": 1554,
      "쥰": 1555,
      "쥴": 1556,
      "즈": 1557,
      "즉": 1558,
      "즌": 1559,
      "즐": 1560,
      "즘": 1561,
      "즙": 1562,
      "증": 1563,
      "지": 1564,
      "직": 1565,
      "진": 1566,
      "짇": 1567,
      "질": 1568,
      "짊": 1569,
      "짐": 1570,
      "집": 1571,
      "짓": 1572,
      "징": 1573,
      "짖": 1574,
      "짙": 1575,
      "짚": 1576,
      "짜": 1577,
      "짝": 1578,
      "짠": 1579,
      "짢": 1580,
      "짤": 1581,
      "짦": 1582,
      "짧": 1583,
      "짬": 1584,
      "짭": 1585,
      "짰": 1586,
      "짱": 1587,
      "째": 1588,
      "짹": 1589,
      "짼": 1590,
      "쨀": 1591,
      "쨈": 1592,
      "쨋": 1593,
      "쨌": 1594,
      "쨍": 1595,
      "쩌": 1596,
      "쩍": 1597,
      "쩐": 1598,
      "쩔": 1599,
      "쩜": 1600,
      "쩝": 1601,
      "쩡": 1602,
      "쪄": 1603,
      "쪘": 1604,
      "쪼": 1605,
      "쪽": 1606,
      "쫀": 1607,
      "쫄": 1608,
      "쫌": 1609,
      "쫑": 1610,
      "쫒": 1611,
      "쫓": 1612,
      "쫙": 1613,
      "쬐": 1614,
      "쬔": 1615,
      "쭈": 1616,
      "쭉": 1617,
      "쭐": 1618,
      "쭘": 1619,
      "쭙": 1620,
      "쭤": 1621,
      "쮸": 1622,
      "쯔": 1623,
      "쯤": 1624,
      "쯩": 1625,
      "찌": 1626,
      "찍": 1627,
      "찎": 1628,
      "찐": 1629,
      "찔": 1630,
      "찜": 1631,
      "찝": 1632,
      "찡": 1633,
      "찢": 1634,
      "찧": 1635,
      "차": 1636,
      "착": 1637,
      "찬": 1638,
      "찮": 1639,
      "찰": 1640,
      "참": 1641,
      "찹": 1642,
      "찻": 1643,
      "찼": 1644,
      "창": 1645,
      "찾": 1646,
      "찿": 1647,
      "챃": 1648,
      "채": 1649,
      "책": 1650,
      "챈": 1651,
      "챌": 1652,
      "챔": 1653,
      "챕": 1654,
      "챗": 1655,
      "챘": 1656,
      "챙": 1657,
      "챠": 1658,
      "챤": 1659,
      "챦": 1660,
      "챱": 1661,
      "처": 1662,
      "척": 1663,
      "천": 1664,
      "철": 1665,
      "첨": 1666,
      "첩": 1667,
      "첫": 1668,
      "청": 1669,
      "체": 1670,
      "첵": 1671,
      "첸": 1672,
      "첼": 1673,
      "쳐": 1674,
      "쳡": 1675,
      "쳤": 1676,
      "쳥": 1677,
      "초": 1678,
      "촉": 1679,
      "촌": 1680,
      "촐": 1681,
      "촘": 1682,
      "촙": 1683,
      "촛": 1684,
      "총": 1685,
      "촨": 1686,
      "촬": 1687,
      "최": 1688,
      "쵸": 1689,
      "추": 1690,
      "축": 1691,
      "춘": 1692,
      "출": 1693,
      "춤": 1694,
      "춥": 1695,
      "춧": 1696,
      "충": 1697,
      "춰": 1698,
      "췄": 1699,
      "췌": 1700,
      "취": 1701,
      "츄": 1702,
      "츈": 1703,
      "츌": 1704,
      "츠": 1705,
      "측": 1706,
      "츨": 1707,
      "츰": 1708,
      "층": 1709,
      "치": 1710,
      "칙": 1711,
      "친": 1712,
      "칟": 1713,
      "칠": 1714,
      "칡": 1715,
      "칢": 1716,
      "침": 1717,
      "칩": 1718,
      "칫": 1719,
      "칭": 1720,
      "카": 1721,
      "칵": 1722,
      "칸": 1723,
      "칼": 1724,
      "캄": 1725,
      "캅": 1726,
      "캇": 1727,
      "캉": 1728,
      "캐": 1729,
      "캔": 1730,
      "캘": 1731,
      "캠": 1732,
      "캡": 1733,
      "캣": 1734,
      "캥": 1735,
      "캬": 1736,
      "커": 1737,
      "컥": 1738,
      "컨": 1739,
      "컫": 1740,
      "컬": 1741,
      "컴": 1742,
      "컵": 1743,
      "컷": 1744,
      "컸": 1745,
      "컹": 1746,
      "케": 1747,
      "켄": 1748,
      "켈": 1749,
      "켐": 1750,
      "켑": 1751,
      "켓": 1752,
      "켜": 1753,
      "켠": 1754,
      "켤": 1755,
      "켬": 1756,
      "켭": 1757,
      "켰": 1758,
      "코": 1759,
      "콕": 1760,
      "콘": 1761,
      "콜": 1762,
      "콤": 1763,
      "콥": 1764,
      "콧": 1765,
      "콩": 1766,
      "콰": 1767,
      "콸": 1768,
      "쾃": 1769,
      "쾅": 1770,
      "쾌": 1771,
      "쾨": 1772,
      "쾰": 1773,
      "쿄": 1774,
      "쿠": 1775,
      "쿡": 1776,
      "쿤": 1777,
      "쿨": 1778,
      "쿰": 1779,
      "쿱": 1780,
      "쿵": 1781,
      "쿼": 1782,
      "퀀": 1783,
      "퀄": 1784,
      "퀏": 1785,
      "퀘": 1786,
      "퀜": 1787,
      "퀴": 1788,
      "퀵": 1789,
      "퀸": 1790,
      "퀼": 1791,
      "큐": 1792,
      "큘": 1793,
      "큠": 1794,
      "크": 1795,
      "큰": 1796,
      "클": 1797,
      "큼": 1798,
      "큽": 1799,
      "킁": 1800,
      "키": 1801,
      "킥": 1802,
      "킨": 1803,
      "킬": 1804,
      "킴": 1805,
      "킵": 1806,
      "킷": 1807,
      "킹": 1808,
      "타": 1809,
      "탁": 1810,
      "탄": 1811,
      "탈": 1812,
      "탉": 1813,
      "탐": 1814,
      "탑": 1815,
      "탓": 1816,
      "탔": 1817,
      "탕": 1818,
      "태": 1819,
      "택": 1820,
      "탠": 1821,
      "탤": 1822,
      "탬": 1823,
      "탭": 1824,
      "탯": 1825,
      "탰": 1826,
      "탱": 1827,
      "터": 1828,
      "턱": 1829,
      "턴": 1830,
      "털": 1831,
      "텀": 1832,
      "텁": 1833,
      "텃": 1834,
      "텄": 1835,
      "텅": 1836,
      "테": 1837,
      "텍": 1838,
      "텐": 1839,
      "텔": 1840,
      "템": 1841,
      "텝": 1842,
      "텟": 1843,
      "텨": 1844,
      "텼": 1845,
      "톈": 1846,
      "토": 1847,
      "톡": 1848,
      "톤": 1849,
      "톨": 1850,
      "톰": 1851,
      "톱": 1852,
      "톳": 1853,
      "통": 1854,
      "퇘": 1855,
      "퇴": 1856,
      "투": 1857,
      "툭": 1858,
      "툰": 1859,
      "툴": 1860,
      "툼": 1861,
      "툽": 1862,
      "툿": 1863,
      "퉁": 1864,
      "퉈": 1865,
      "퉜": 1866,
      "퉤": 1867,
      "튀": 1868,
      "튄": 1869,
      "튈": 1870,
      "튑": 1871,
      "튕": 1872,
      "튜": 1873,
      "튠": 1874,
      "튤": 1875,
      "튬": 1876,
      "트": 1877,
      "특": 1878,
      "튼": 1879,
      "튿": 1880,
      "틀": 1881,
      "틈": 1882,
      "틉": 1883,
      "틋": 1884,
      "틔": 1885,
      "티": 1886,
      "틱": 1887,
      "틴": 1888,
      "틸": 1889,
      "팀": 1890,
      "팁": 1891,
      "팅": 1892,
      "파": 1893,
      "팍": 1894,
      "팎": 1895,
      "판": 1896,
      "팔": 1897,
      "팜": 1898,
      "팝": 1899,
      "팟": 1900,
      "팠": 1901,
      "팡": 1902,
      "팥": 1903,
      "패": 1904,
      "팩": 1905,
      "팬": 1906,
      "팰": 1907,
      "팸": 1908,
      "팹": 1909,
      "팻": 1910,
      "팼": 1911,
      "팽": 1912,
      "퍼": 1913,
      "퍽": 1914,
      "펀": 1915,
      "펄": 1916,
      "펌": 1917,
      "펍": 1918,
      "펏": 1919,
      "펐": 1920,
      "펑": 1921,
      "페": 1922,
      "펙": 1923,
      "펜": 1924,
      "펠": 1925,
      "펨": 1926,
      "펩": 1927,
      "펫": 1928,
      "펭": 1929,
      "펴": 1930,
      "편": 1931,
      "펼": 1932,
      "폄": 1933,
      "폈": 1934,
      "평": 1935,
      "폐": 1936,
      "포": 1937,
      "폭": 1938,
      "폰": 1939,
      "폴": 1940,
      "폼": 1941,
      "폽": 1942,
      "폿": 1943,
      "퐁": 1944,
      "푀": 1945,
      "표": 1946,
      "푯": 1947,
      "푸": 1948,
      "푹": 1949,
      "푼": 1950,
      "풀": 1951,
      "풂": 1952,
      "품": 1953,
      "풉": 1954,
      "풋": 1955,
      "풍": 1956,
      "퓌": 1957,
      "퓨": 1958,
      "퓰": 1959,
      "퓸": 1960,
      "프": 1961,
      "픈": 1962,
      "플": 1963,
      "픔": 1964,
      "픕": 1965,
      "피": 1966,
      "픽": 1967,
      "핀": 1968,
      "필": 1969,
      "핌": 1970,
      "핍": 1971,
      "핏": 1972,
      "핑": 1973,
      "하": 1974,
      "학": 1975,
      "한": 1976,
      "할": 1977,
      "핥": 1978,
      "함": 1979,
      "합": 1980,
      "핫": 1981,
      "핬": 1982,
      "항": 1983,
      "해": 1984,
      "핵": 1985,
      "핸": 1986,
      "핼": 1987,
      "햄": 1988,
      "햅": 1989,
      "햇": 1990,
      "했": 1991,
      "행": 1992,
      "햐": 1993,
      "향": 1994,
      "헀": 1995,
      "허": 1996,
      "헉": 1997,
      "헌": 1998,
      "헐": 1999,
      "험": 2000,
      "헙": 2001,
      "헛": 2002,
      "헝": 2003,
      "헣": 2004,
      "헤": 2005,
      "헥": 2006,
      "헨": 2007,
      "헬": 2008,
      "헴": 2009,
      "헵": 2010,
      "헷": 2011,
      "헹": 2012,
      "혀": 2013,
      "혁": 2014,
      "현": 2015,
      "혈": 2016,
      "혐": 2017,
      "협": 2018,
      "혓": 2019,
      "혔": 2020,
      "형": 2021,
      "혜": 2022,
      "호": 2023,
      "혹": 2024,
      "혼": 2025,
      "홀": 2026,
      "홈": 2027,
      "홉": 2028,
      "홋": 2029,
      "홍": 2030,
      "홑": 2031,
      "화": 2032,
      "확": 2033,
      "환": 2034,
      "활": 2035,
      "홧": 2036,
      "황": 2037,
      "홱": 2038,
      "횃": 2039,
      "회": 2040,
      "획": 2041,
      "횟": 2042,
      "횡": 2043,
      "효": 2044,
      "후": 2045,
      "훅": 2046,
      "훈": 2047,
      "훌": 2048,
      "훑": 2049,
      "훔": 2050,
      "훗": 2051,
      "훠": 2052,
      "훤": 2053,
      "훨": 2054,
      "훼": 2055,
      "휀": 2056,
      "휑": 2057,
      "휘": 2058,
      "휙": 2059,
      "휜": 2060,
      "휠": 2061,
      "휨": 2062,
      "휩": 2063,
      "휴": 2064,
      "휼": 2065,
      "흉": 2066,
      "흐": 2067,
      "흑": 2068,
      "흔": 2069,
      "흘": 2070,
      "흙": 2071,
      "흝": 2072,
      "흠": 2073,
      "흡": 2074,
      "흥": 2075,
      "흩": 2076,
      "희": 2077,
      "흰": 2078,
      "흴": 2079,
      "히": 2080,
      "힉": 2081,
      "힌": 2082,
      "힐": 2083,
      "힘": 2084,
      "힙": 2085,
      "ﬁ": 2086,
      "ﬂ": 2087,
      "️": 2088,
      "％": 2089,
      "＆": 2090,
      "．": 2091,
      "３": 2092,
      "ｍ": 2093,
      "ｘ": 2094,
      "～": 2095,
      "･": 2096,
      "￦": 2097,
      "##재": 2098,
      "##는": 2099,
      "##산": 2100,
      "##에": 2101,
      "##통": 2102,
      "##이": 2103,
      "##의": 2104,
      "##와": 2105,
      "##명": 2106,
      "##을": 2107,
      "##a": 2108,
      "##e": 2109,
      "##n": 2110,
      "##g": 2111,
      "##c": 2112,
      "##h": 2113,
      "##회": 2114,
      "##동": 2115,
      "##받": 2116,
      "##았": 2117,
      "##어": 2118,
      "##편": 2119,
      "##서": 2120,
      "##x": 2121,
      "##1": 2122,
      "##f": 2123,
      "##7": 2124,
      "##기": 2125,
      "##견": 2126,
      "##센": 2127,
      "##터": 2128,
      "##로": 2129,
      "##3": 2130,
      "##5": 2131,
      "##번": 2132,
      "##으": 2133,
      "##말": 2134,
      "##피": 2135,
      "##크": 2136,
      "##닉": 2137,
      "##퀼": 2138,
      "##은": 2139,
      "##강": 2140,
      "##l": 2141,
      "##t": 2142,
      "##할": 2143,
      "##것": 2144,
      "##입": 2145,
      "##니": 2146,
      "##다": 2147,
      "##정": 2148,
      "##하": 2149,
      "##셨": 2150,
      "##지": 2151,
      "##요": 2152,
      "##겠": 2153,
      "##딩": 2154,
      "##될": 2155,
      "##당": 2156,
      "##한": 2157,
      "##용": 2158,
      "##차": 2159,
      "##를": 2160,
      "##앙": 2161,
      "##부": 2162,
      "##가": 2163,
      "##k": 2164,
      "##w": 2165,
      "##r": 2166,
      "##d": 2167,
      "##s": 2168,
      "##렇": 2169,
      "##월": 2170,
      "##면": 2171,
      "##량": 2172,
      "##제": 2173,
      "##품": 2174,
      "##성": 2175,
      "##나": 2176,
      "##건": 2177,
      "##국": 2178,
      "##도": 2179,
      "##코": 2180,
      "##o": 2181,
      "##i": 2182,
      "##만": 2183,
      "##적": 2184,
      "##까": 2185,
      "##m": 2186,
      "##들": 2187,
      "##과": 2188,
      "##살": 2189,
      "##같": 2190,
      "##단": 2191,
      "##u": 2192,
      "##악": 2193,
      "##인": 2194,
      "##시": 2195,
      "##고": 2196,
      "##생": 2197,
      "##D": 2198,
      "##A": 2199,
      "##b": 2200,
      "##설": 2201,
      "##갔": 2202,
      "##었": 2203,
      "##리": 2204,
      "##심": 2205,
      "##져": 2206,
      "##줘": 2207,
      "##률": 2208,
      "##0": 2209,
      "##결": 2210,
      "##록": 2211,
      "##스": 2212,
      "##팅": 2213,
      "##라": 2214,
      "##펴": 2215,
      "##봐": 2216,
      "##간": 2217,
      "##마": 2218,
      "##했": 2219,
      "##던": 2220,
      "##폭": 2221,
      "##력": 2222,
      "##역": 2223,
      "##업": 2224,
      "##체": 2225,
      "##바": 2226,
      "##비": 2227,
      "##린": 2228,
      "##미": 2229,
      "##보": 2230,
      "##페": 2231,
      "##돌": 2232,
      "##완": 2233,
      "##째": 2234,
      "##야": 2235,
      "##검": 2236,
      "##네": 2237,
      "##예": 2238,
      "##트": 2239,
      "##데": 2240,
      "##치": 2241,
      "##버": 2242,
      "##렸": 2243,
      "##각": 2244,
      "##상": 2245,
      "##노": 2246,
      "##p": 2247,
      "##백": 2248,
      "##분": 2249,
      "##일": 2250,
      "##대": 2251,
      "##람": 2252,
      "##림": 2253,
      "##찜": 2254,
      "##복": 2255,
      "##소": 2256,
      "##킬": 2257,
      "##녀": 2258,
      "##오": 2259,
      "##길": 2260,
      "##쟁": 2261,
      "##워": 2262,
      "##식": 2263,
      "##톤": 2264,
      "##료": 2265,
      "##자": 2266,
      "##팀": 2267,
      "##읍": 2268,
      "##해": 2269,
      "##주": 2270,
      "##세": 2271,
      "##그": 2272,
      "##램": 2273,
      "##축": 2274,
      "##술": 2275,
      "##W": 2276,
      "##T": 2277,
      "##v": 2278,
      "##며": 2279,
      "##개": 2280,
      "##전": 2281,
      "##불": 2282,
      "##감": 2283,
      "##증": 2284,
      "##장": 2285,
      "##애": 2286,
      "##숲": 2287,
      "##너": 2288,
      "##구": 2289,
      "##사": 2290,
      "##중": 2291,
      "##되": 2292,
      "##있": 2293,
      "##공": 2294,
      "##렴": 2295,
      "##속": 2296,
      "##담": 2297,
      "##종": 2298,
      "##래": 2299,
      "##깐": 2300,
      "##갈": 2301,
      "##즈": 2302,
      "##려": 2303,
      "##화": 2304,
      "##합": 2305,
      "##눔": 2306,
      "##울": 2307,
      "##랑": 2308,
      "##토": 2309,
      "##신": 2310,
      "##우": 2311,
      "##김": 2312,
      "##밥": 2313,
      "##실": 2314,
      "##y": 2315,
      "##셔": 2316,
      "##프": 2317,
      "##줄": 2318,
      "##게": 2319,
      "##골": 2320,
      "##손": 2321,
      "##님": 2322,
      "##께": 2323,
      "##방": 2324,
      "##뢰": 2325,
      "##희": 2326,
      "##행": 2327,
      "##점": 2328,
      "##없": 2329,
      "##거": 2330,
      "##원": 2331,
      "##킨": 2332,
      "##츠": 2333,
      "##9": 2334,
      "##6": 2335,
      "##년": 2336,
      "##쯤": 2337,
      "##뿐": 2338,
      "##운": 2339,
      "##금": 2340,
      "##책": 2341,
      "##군": 2342,
      "##습": 2343,
      "##매": 2344,
      "##색": 2345,
      "##된": 2346,
      "##놓": 2347,
      "##더": 2348,
      "##집": 2349,
      "##청": 2350,
      "##족": 2351,
      "##클": 2352,
      "##링": 2353,
      "##j": 2354,
      "##학": 2355,
      "##여": 2356,
      "##아": 2357,
      "##승": 2358,
      "##민": 2359,
      "##괴": 2360,
      "##안": 2361,
      "##북": 2362,
      "##절": 2363,
      "##위": 2364,
      "##초": 2365,
      "##내": 2366,
      "##드": 2367,
      "##덕": 2368,
      "##렬": 2369,
      "##히": 2370,
      "##법": 2371,
      "##숙": 2372,
      "##함": 2373,
      "##언": 2374,
      "##류": 2375,
      "##왔": 2376,
      "##수": 2377,
      "##M": 2378,
      "##표": 2379,
      "##르": 2380,
      "##케": 2381,
      "##퓨": 2382,
      "##달": 2383,
      "##범": 2384,
      "##z": 2385,
      "##호": 2386,
      "##환": 2387,
      "##문": 2388,
      "##답": 2389,
      "##뇨": 2390,
      "##출": 2391,
      "##찰": 2392,
      "##총": 2393,
      "##련": 2394,
      "##반": 2395,
      "##영": 2396,
      "##험": 2397,
      "##별": 2398,
      "##층": 2399,
      "##납": 2400,
      "##음": 2401,
      "##근": 2402,
      "##였": 2403,
      "##침": 2404,
      "##외": 2405,
      "##브": 2406,
      "##랄": 2407,
      "##됐": 2408,
      "##든": 2409,
      "##칼": 2410,
      "##S": 2411,
      "##객": 2412,
      "##q": 2413,
      "##낭": 2414,
      "##밀": 2415,
      "##P": 2416,
      "##선": 2417,
      "##므": 2418,
      "##루": 2419,
      "##밖": 2420,
      "##맛": 2421,
      "##V": 2422,
      "##K": 2423,
      "##급": 2424,
      "##직": 2425,
      "##됨": 2426,
      "##∙": 2427,
      "##무": 2428,
      "##플": 2429,
      "##론": 2430,
      "##쿠": 2431,
      "##움": 2432,
      "##짓": 2433,
      "##둘": 2434,
      "##탕": 2435,
      "##둬": 2436,
      "##둔": 2437,
      "##릴": 2438,
      "##유": 2439,
      "##폴": 2440,
      "##송": 2441,
      "##카": 2442,
      "##웁": 2443,
      "##두": 2444,
      "##란": 2445,
      "##넣": 2446,
      "##향": 2447,
      "##교": 2448,
      "##혁": 2449,
      "##깊": 2450,
      "##극": 2451,
      "##졌": 2452,
      "##흡": 2453,
      "##냄": 2454,
      "##형": 2455,
      "##현": 2456,
      "##L": 2457,
      "##룹": 2458,
      "##E": 2459,
      "##글": 2460,
      "##천": 2461,
      "##륙": 2462,
      "##작": 2463,
      "##모": 2464,
      "##막": 2465,
      "##임": 2466,
      "##물": 2467,
      "##팔": 2468,
      "##연": 2469,
      "##득": 2470,
      "##율": 2471,
      "##꽃": 2472,
      "##효": 2473,
      "##컷": 2474,
      "##택": 2475,
      "##웨": 2476,
      "##션": 2477,
      "##디": 2478,
      "##값": 2479,
      "##냐": 2480,
      "##죠": 2481,
      "##씩": 2482,
      "##누": 2483,
      "##망": 2484,
      "##양": 2485,
      "##항": 2486,
      "##닥": 2487,
      "##채": 2488,
      "##뒀": 2489,
      "##독": 2490,
      "##틀": 2491,
      "##랜": 2492,
      "##곤": 2493,
      "##H": 2494,
      "##관": 2495,
      "##메": 2496,
      "##경": 2497,
      "##퍼": 2498,
      "##R": 2499,
      "##창": 2500,
      "##박": 2501,
      "##룩": 2502,
      "##2": 2503,
      "##저": 2504,
      "##칙": 2505,
      "##욕": 2506,
      "##처": 2507,
      "##럼": 2508,
      "##I": 2509,
      "##엇": 2510,
      "##랫": 2511,
      "##널": 2512,
      "##격": 2513,
      "##잖": 2514,
      "##캐": 2515,
      "##얼": 2516,
      "##징": 2517,
      "##착": 2518,
      "##녁": 2519,
      "##황": 2520,
      "##러": 2521,
      "##약": 2522,
      "##름": 2523,
      "##테": 2524,
      "##짜": 2525,
      "##평": 2526,
      "##써": 2527,
      "##파": 2528,
      "##티": 2529,
      "##타": 2530,
      "##깝": 2531,
      "##춰": 2532,
      "##탈": 2533,
      "##찬": 2534,
      "##O": 2535,
      "##U": 2536,
      "##진": 2537,
      "##십": 2538,
      "##N": 2539,
      "##즌": 2540,
      "##권": 2541,
      "##준": 2542,
      "##레": 2543,
      "##블": 2544,
      "##4": 2545,
      "##킹": 2546,
      "##섬": 2547,
      "##럽": 2548,
      "##육": 2549,
      "##키": 2550,
      "##패": 2551,
      "##엔": 2552,
      "##냈": 2553,
      "##돼": 2554,
      "##놀": 2555,
      "##계": 2556,
      "##조": 2557,
      "##접": 2558,
      "##태": 2559,
      "##본": 2560,
      "##켜": 2561,
      "##열": 2562,
      "##날": 2563,
      "##끝": 2564,
      "##혼": 2565,
      "##베": 2566,
      "##석": 2567,
      "##F": 2568,
      "##숏": 2569,
      "##념": 2570,
      "##난": 2571,
      "##렛": 2572,
      "##추": 2573,
      "##겼": 2574,
      "##포": 2575,
      "##낯": 2576,
      "##엉": 2577,
      "##켄": 2578,
      "##슈": 2579,
      "##활": 2580,
      "##쁘": 2581,
      "##른": 2582,
      "##새": 2583,
      "##혀": 2584,
      "##잡": 2585,
      "##느": 2586,
      "##죄": 2587,
      "##쇄": 2588,
      "##쁜": 2589,
      "##병": 2590,
      "##혜": 2591,
      "##G": 2592,
      "##큼": 2593,
      "##판": 2594,
      "##겁": 2595,
      "##뀌": 2596,
      "##변": 2597,
      "##겨": 2598,
      "##힌": 2599,
      "##웅": 2600,
      "##묘": 2601,
      "##킵": 2602,
      "##옥": 2603,
      "##쾌": 2604,
      "##봅": 2605,
      "##싱": 2606,
      "##뎌": 2607,
      "##락": 2608,
      "##곱": 2609,
      "##엄": 2610,
      "##젝": 2611,
      "##순": 2612,
      "##쉘": 2613,
      "##멘": 2614,
      "##등": 2615,
      "##촉": 2616,
      "##콤": 2617,
      "##Q": 2618,
      "##탠": 2619,
      "##온": 2620,
      "##듯": 2621,
      "##긴": 2622,
      "##낼": 2623,
      "##콜": 2624,
      "##릿": 2625,
      "##쌍": 2626,
      "##볼": 2627,
      "##덜": 2628,
      "##억": 2629,
      "##둑": 2630,
      "##섯": 2631,
      "##됩": 2632,
      "##씀": 2633,
      "##닝": 2634,
      "##났": 2635,
      "##곳": 2636,
      "##틴": 2637,
      "##빵": 2638,
      "##머": 2639,
      "##롭": 2640,
      "##걸": 2641,
      "##늘": 2642,
      "##렌": 2643,
      "##댐": 2644,
      "##픽": 2645,
      "##꼴": 2646,
      "##픈": 2647,
      "##8": 2648,
      "##쳐": 2649,
      "##칩": 2650,
      "##촌": 2651,
      "##능": 2652,
      "##둣": 2653,
      "##취": 2654,
      "##섭": 2655,
      "##섰": 2656,
      "##측": 2657,
      "##렀": 2658,
      "##친": 2659,
      "##붙": 2660,
      "##넥": 2661,
      "##익": 2662,
      "##퀴": 2663,
      "##립": 2664,
      "##벨": 2665,
      "##퇴": 2666,
      "##켓": 2667,
      "##목": 2668,
      "##뷰": 2669,
      "##틱": 2670,
      "##랐": 2671,
      "##알": 2672,
      "##쪽": 2673,
      "##샘": 2674,
      "##쥐": 2675,
      "##툼": 2676,
      "##델": 2677,
      "##쉬": 2678,
      "##컨": 2679,
      "##쳤": 2680,
      "##액": 2681,
      "##줬": 2682,
      "##벌": 2683,
      "##씨": 2684,
      "##곡": 2685,
      "##돈": 2686,
      "##녔": 2687,
      "##셋": 2688,
      "##염": 2689,
      "##갑": 2690,
      "##C": 2691,
      "##팬": 2692,
      "##빨": 2693,
      "##령": 2694,
      "##맨": 2695,
      "##떄": 2696,
      "##광": 2697,
      "##푼": 2698,
      "##암": 2699,
      "##봤": 2700,
      "##먼": 2701,
      "##팩": 2702,
      "##왕": 2703,
      "##쩍": 2704,
      "##벡": 2705,
      "##투": 2706,
      "##빠": 2707,
      "##텀": 2708,
      "##얘": 2709,
      "##꼬": 2710,
      "##걱": 2711,
      "##존": 2712,
      "##셰": 2713,
      "##춧": 2714,
      "##벽": 2715,
      "##배": 2716,
      "##슨": 2717,
      "##뜨": 2718,
      "##릭": 2719,
      "##랙": 2720,
      "##커": 2721,
      "##빙": 2722,
      "##탑": 2723,
      "##질": 2724,
      "##댄": 2725,
      "##컴": 2726,
      "##옷": 2727,
      "##핵": 2728,
      "##셜": 2729,
      "##B": 2730,
      "##칭": 2731,
      "##껑": 2732,
      "##닌": 2733,
      "##못": 2734,
      "##룸": 2735,
      "##균": 2736,
      "##좌": 2737,
      "##뜻": 2738,
      "##줍": 2739,
      "##싶": 2740,
      "##융": 2741,
      "##낸": 2742,
      "##쇠": 2743,
      "##륭": 2744,
      "##é": 2745,
      "##웃": 2746,
      "##텔": 2747,
      "##따": 2748,
      "##올": 2749,
      "##윤": 2750,
      "##톱": 2751,
      "##씰": 2752,
      "##댔": 2753,
      "##뒤": 2754,
      "##떻": 2755,
      "##몸": 2756,
      "##죽": 2757,
      "##텨": 2758,
      "##븐": 2759,
      "##괏": 2760,
      "##삼": 2761,
      "##겹": 2762,
      "##엠": 2763,
      "##J": 2764,
      "##턱": 2765,
      "##뺨": 2766,
      "##꺼": 2767,
      "##탁": 2768,
      "##례": 2769,
      "##켰": 2770,
      "##응": 2771,
      "##먹": 2772,
      "##몬": 2773,
      "##듬": 2774,
      "##풍": 2775,
      "##탄": 2776,
      "##짝": 2777,
      "##겐": 2778,
      "##웠": 2779,
      "##협": 2780,
      "##핑": 2781,
      "##철": 2782,
      "##댁": 2783,
      "##쓸": 2784,
      "##엽": 2785,
      "##℃": 2786,
      "##빅": 2787,
      "##셌": 2788,
      "##폰": 2789,
      "##펄": 2790,
      "##낵": 2791,
      "##랬": 2792,
      "##훈": 2793,
      "##봉": 2794,
      "##귀": 2795,
      "##풀": 2796,
      "##롤": 2797,
      "##긋": 2798,
      "##꿔": 2799,
      "##논": 2800,
      "##쓰": 2801,
      "##압": 2802,
      "##싹": 2803,
      "##깃": 2804,
      "##펙": 2805,
      "##꾼": 2806,
      "##랩": 2807,
      "##충": 2808,
      "##휘": 2809,
      "##춘": 2810,
      "##렝": 2811,
      "##놨": 2812,
      "##팽": 2813,
      "##밌": 2814,
      "##쌈": 2815,
      "##쉽": 2816,
      "##녕": 2817,
      "##략": 2818,
      "##렘": 2819,
      "##냥": 2820,
      "##숫": 2821,
      "##푸": 2822,
      "##찮": 2823,
      "##남": 2824,
      "##꾸": 2825,
      "##맞": 2826,
      "##춤": 2827,
      "##규": 2828,
      "##댓": 2829,
      "##맹": 2830,
      "##뉴": 2831,
      "##셈": 2832,
      "##킷": 2833,
      "##발": 2834,
      "##줌": 2835,
      "##헌": 2836,
      "##확": 2837,
      "##옵": 2838,
      "##휴": 2839,
      "##깥": 2840,
      "##빈": 2841,
      "##믹": 2842,
      "##홀": 2843,
      "##빗": 2844,
      "##랭": 2845,
      "##뇄": 2846,
      "##썼": 2847,
      "##싸": 2848,
      "##닷": 2849,
      "##뱃": 2850,
      "##찍": 2851,
      "##때": 2852,
      "##샵": 2853,
      "##농": 2854,
      "##붕": 2855,
      "##턴": 2856,
      "##깨": 2857,
      "##렉": 2858,
      "##참": 2859,
      "##엘": 2860,
      "##롱": 2861,
      "##듭": 2862,
      "##좀": 2863,
      "##후": 2864,
      "##밑": 2865,
      "##잔": 2866,
      "##X": 2867,
      "##잣": 2868,
      "##몽": 2869,
      "##캠": 2870,
      "##쵸": 2871,
      "##ℓ": 2872,
      "##럴": 2873,
      "##끄": 2874,
      "##핏": 2875,
      "##런": 2876,
      "##끗": 2877,
      "##획": 2878,
      "##허": 2879,
      "##폐": 2880,
      "##콘": 2881,
      "##즐": 2882,
      "##뻐": 2883,
      "##챘": 2884,
      "##최": 2885,
      "##셸": 2886,
      "##눠": 2887,
      "##샷": 2888,
      "##묵": 2889,
      "##룬": 2890,
      "##룡": 2891,
      "##빴": 2892,
      "##듣": 2893,
      "##굴": 2894,
      "##둥": 2895,
      "##떤": 2896,
      "##팍": 2897,
      "##렙": 2898,
      "##떠": 2899,
      "##몰": 2900,
      "##퀄": 2901,
      "##끼": 2902,
      "##밤": 2903,
      "##척": 2904,
      "##덟": 2905,
      "##랍": 2906,
      "##끌": 2907,
      "##궁": 2908,
      "##닐": 2909,
      "##큽": 2910,
      "##슬": 2911,
      "##템": 2912,
      "##곶": 2913,
      "##폼": 2914,
      "##빔": 2915,
      "##텐": 2916,
      "##앉": 2917,
      "##릉": 2918,
      "##륜": 2919,
      "##밴": 2920,
      "##롬": 2921,
      "##헥": 2922,
      "##깔": 2923,
      "##뮤": 2924,
      "##곰": 2925,
      "##필": 2926,
      "##볶": 2927,
      "##핀": 2928,
      "##뀔": 2929,
      "##릇": 2930,
      "##틸": 2931,
      "##겟": 2932,
      "##혈": 2933,
      "##콩": 2934,
      "##쌀": 2935,
      "##끔": 2936,
      "##큰": 2937,
      "##놔": 2938,
      "##큐": 2939,
      "##멀": 2940,
      "##젼": 2941,
      "##쩡": 2942,
      "##낙": 2943,
      "##벳": 2944,
      "##꼽": 2945,
      "##눈": 2946,
      "##잠": 2947,
      "##눅": 2948,
      "##괄": 2949,
      "##멜": 2950,
      "##룰": 2951,
      "##봬": 2952,
      "##싯": 2953,
      "##멸": 2954,
      "##슷": 2955,
      "##튜": 2956,
      "##앗": 2957,
      "##넛": 2958,
      "##잌": 2959,
      "##럭": 2960,
      "##딜": 2961,
      "##젠": 2962,
      "##Y": 2963,
      "##팹": 2964,
      "##딘": 2965,
      "##펌": 2966,
      "##쥬": 2967,
      "##딪": 2968,
      "##젤": 2969,
      "##깜": 2970,
      "##낌": 2971,
      "##륵": 2972,
      "##쇼": 2973,
      "##뤄": 2974,
      "##쁨": 2975,
      "##윈": 2976,
      "##꽂": 2977,
      "##흥": 2978,
      "##칸": 2979,
      "##뚝": 2980,
      "##힐": 2981,
      "##밍": 2982,
      "##혔": 2983,
      "##벼": 2984,
      "##똥": 2985,
      "##넬": 2986,
      "##셀": 2987,
      "##돔": 2988,
      "##렁": 2989,
      "##헐": 2990,
      "##앤": 2991,
      "##댈": 2992,
      "##쫒": 2993,
      "##좋": 2994,
      "##놉": 2995,
      "##멍": 2996,
      "##닮": 2997,
      "##봄": 2998,
      "##펠": 2999,
      "##숍": 3000,
      "##빌": 3001,
      "##뽕": 3002,
      "##칠": 3003,
      "##렐": 3004,
      "##닫": 3005,
      "##탔": 3006,
      "##떨": 3007,
      "##갱": 3008,
      "##샥": 3009,
      "##샤": 3010,
      "##삿": 3011,
      "##팝": 3012,
      "##늬": 3013,
      "##댑": 3014,
      "##롯": 3015,
      "##맥": 3016,
      "##쩌": 3017,
      "##털": 3018,
      "##í": 3019,
      "##궂": 3020,
      "##껴": 3021,
      "##홍": 3022,
      "##덴": 3023,
      "##㎞": 3024,
      "##렵": 3025,
      "##껍": 3026,
      "##즘": 3027,
      "##빛": 3028,
      "##꿀": 3029,
      "##헨": 3030,
      "##컬": 3031,
      "##뱅": 3032,
      "##꼈": 3033,
      "##촘": 3034,
      "##덤": 3035,
      "##깅": 3036,
      "##럿": 3037,
      "##땠": 3038,
      "##홈": 3039,
      "##넘": 3040,
      "##슴": 3041,
      "##젯": 3042,
      "##튼": 3043,
      "##쭤": 3044,
      "##똘": 3045,
      "##쉐": 3046,
      "##솔": 3047,
      "##돗": 3048,
      "##넷": 3049,
      "##잎": 3050,
      "##않": 3051,
      "##벤": 3052,
      "##뚱": 3053,
      "##펀": 3054,
      "##낱": 3055,
      "##셉": 3056,
      "##Ø": 3057,
      "##쿼": 3058,
      "##쿱": 3059,
      "##즙": 3060,
      "##틈": 3061,
      "##듀": 3062,
      "##눴": 3063,
      "##숨": 3064,
      "##쑥": 3065,
      "##뛰": 3066,
      "##룽": 3067,
      "##챌": 3068,
      "##눌": 3069,
      "##쥴": 3070,
      "##짐": 3071,
      "##찌": 3072,
      "##톰": 3073,
      "##캔": 3074,
      "##깡": 3075,
      "##️": 3076,
      "##궜": 3077,
      "##룻": 3078,
      "##맘": 3079,
      "##칫": 3080,
      "##끈": 3081,
      "##팠": 3082,
      "##픔": 3083,
      "##Z": 3084,
      "##앓": 3085,
      "##띠": 3086,
      "##μ": 3087,
      "##캅": 3088,
      "##빡": 3089,
      "##왈": 3090,
      "##텝": 3091,
      "##톡": 3092,
      "##흉": 3093,
      "##앴": 3094,
      "##엌": 3095,
      "##둡": 3096,
      "##넌": 3097,
      "##앱": 3098,
      "##펜": 3099,
      "##쭉": 3100,
      "##듐": 3101,
      "##ｍ": 3102,
      "##썩": 3103,
      "##퀀": 3104,
      "##첼": 3105,
      "##쿤": 3106,
      "##돛": 3107,
      "##맣": 3108,
      "##앞": 3109,
      "##또": 3110,
      "##맑": 3111,
      "##릎": 3112,
      "##썹": 3113,
      "##냉": 3114,
      "##줏": 3115,
      "##헤": 3116,
      "##덩": 3117,
      "##꿈": 3118,
      "##팟": 3119,
      "##뻔": 3120,
      "##솥": 3121,
      "##°": 3122,
      "##췌": 3123,
      "##딸": 3124,
      "##햄": 3125,
      "##콰": 3126,
      "##ô": 3127,
      "##냅": 3128,
      "##겄": 3129,
      "##혹": 3130,
      "##뼉": 3131,
      "##둠": 3132,
      "##튀": 3133,
      "##탐": 3134,
      "##밸": 3135,
      "##늄": 3136,
      "##짱": 3137,
      "##굼": 3138,
      "##늦": 3139,
      "##삭": 3140,
      "##렷": 3141,
      "##뱉": 3142,
      "##텼": 3143,
      "##낚": 3144,
      "##썸": 3145,
      "##벅": 3146,
      "##헬": 3147,
      "##텍": 3148,
      "##탭": 3149,
      "##엥": 3150,
      "##냇": 3151,
      "##엎": 3152,
      "##딱": 3153,
      "##흐": 3154,
      "##땡": 3155,
      "##특": 3156,
      "##즉": 3157,
      "##팡": 3158,
      "##멧": 3159,
      "##뮴": 3160,
      "##딤": 3161,
      "##귄": 3162,
      "##뜩": 3163,
      "##퉁": 3164,
      "##첨": 3165,
      "##띤": 3166,
      "##맬": 3167,
      "##밋": 3168,
      "##졍": 3169,
      "##뇌": 3170,
      "##킴": 3171,
      "##뽀": 3172,
      "##볐": 3173,
      "##힘": 3174,
      "##뚜": 3175,
      "##쭐": 3176,
      "##딨": 3177,
      "##꼐": 3178,
      "##숭": 3179,
      "##넴": 3180,
      "##캡": 3181,
      "##콕": 3182,
      "##닭": 3183,
      "##²": 3184,
      "##첩": 3185,
      "##걀": 3186,
      "##떡": 3187,
      "##웰": 3188,
      "##폿": 3189,
      "##쿨": 3190,
      "##땅": 3191,
      "##깁": 3192,
      "##썽": 3193,
      "##듈": 3194,
      "##궈": 3195,
      "##킥": 3196,
      "##랴": 3197,
      "##뵙": 3198,
      "##많": 3199,
      "##졸": 3200,
      "##햇": 3201,
      "##펩": 3202,
      "##뮨": 3203,
      "##­": 3204,
      "##엑": 3205,
      "##쿡": 3206,
      "##굽": 3207,
      "##쫓": 3208,
      "##낮": 3209,
      "##걷": 3210,
      "##밭": 3211,
      "##덧": 3212,
      "##잉": 3213,
      "##궤": 3214,
      "##폈": 3215,
      "##낄": 3216,
      "##흔": 3217,
      "##ā": 3218,
      "##펫": 3219,
      "##꼭": 3220,
      "##찾": 3221,
      "##콧": 3222,
      "##릅": 3223,
      "##륨": 3224,
      "##흠": 3225,
      "##겡": 3226,
      "##놈": 3227,
      "##뱀": 3228,
      "##맷": 3229,
      "##욱": 3230,
      "##뉘": 3231,
      "##힙": 3232,
      "##뜰": 3233,
      "##봇": 3234,
      "##퓰": 3235,
      "##츄": 3236,
      "##췄": 3237,
      "##궐": 3238,
      "##얀": 3239,
      "##뚤": 3240,
      "##팸": 3241,
      "##å": 3242,
      "##낀": 3243,
      "##흘": 3244,
      "##윙": 3245,
      "##퀵": 3246,
      "##챠": 3247,
      "##똑": 3248,
      "##툰": 3249,
      "##찻": 3250,
      "##딕": 3251,
      "##젓": 3252,
      "##탱": 3253,
      "##뻤": 3254,
      "##캉": 3255,
      "##뤘": 3256,
      "##닙": 3257,
      "##톨": 3258,
      "##탬": 3259,
      "##붓": 3260,
      "##뭇": 3261,
      "##쭈": 3262,
      "##쭙": 3263,
      "##빼": 3264,
      "##뇽": 3265,
      "##툴": 3266,
      "##쌩": 3267,
      "##쫀": 3268,
      "##훼": 3269,
      "##쿄": 3270,
      "##떼": 3271,
      "##팎": 3272,
      "##뭉": 3273,
      "##곽": 3274,
      "##뼛": 3275,
      "##´": 3276,
      "##삐": 3277,
      "##볕": 3278,
      "##샐": 3279,
      "##뿌": 3280,
      "##뷔": 3281,
      "##욘": 3282,
      "##‬": 3283,
      "##촬": 3284,
      "##짬": 3285,
      "##꽝": 3286,
      "##섞": 3287,
      "##혐": 3288,
      "##켤": 3289,
      "##짹": 3290,
      "##숟": 3291,
      "##댜": 3292,
      "##컵": 3293,
      "##닿": 3294,
      "##덮": 3295,
      "##숴": 3296,
      "##넨": 3297,
      "##슘": 3298,
      "##㎥": 3299,
      "##싼": 3300,
      "##퀜": 3301,
      "##텅": 3302,
      "##껏": 3303,
      "##몇": 3304,
      "##훨": 3305,
      "##챗": 3306,
      "##윗": 3307,
      "##맵": 3308,
      "##쥘": 3309,
      "##큘": 3310,
      "##핍": 3311,
      "##닛": 3312,
      "##삽": 3313,
      "##띄": 3314,
      "##밟": 3315,
      "##엿": 3316,
      "##쌓": 3317,
      "##벙": 3318,
      "##씬": 3319,
      "##ä": 3320,
      "##딴": 3321,
      "##돋": 3322,
      "##픕": 3323,
      "##퐁": 3324,
      "##컥": 3325,
      "##긍": 3326,
      "##쫙": 3327,
      "##뚫": 3328,
      "##맙": 3329,
      "##깍": 3330,
      "##짖": 3331,
      "##몫": 3332,
      "##꿨": 3333,
      "##튿": 3334,
      "##슐": 3335,
      "##쁠": 3336,
      "##쓴": 3337,
      "##쌔": 3338,
      "##뭄": 3339,
      "##껄": 3340,
      "##³": 3341,
      "##쌌": 3342,
      "##헴": 3343,
      "##랗": 3344,
      "##얄": 3345,
      "##콥": 3346,
      "##×": 3347,
      "##툭": 3348,
      "##뻣": 3349,
      "##펍": 3350,
      "##벗": 3351,
      "##귤": 3352,
      "##​": 3353,
      "##ㅆ": 3354,
      "##겔": 3355,
      "##높": 3356,
      "##쥔": 3357,
      "##웍": 3358,
      "##넓": 3359,
      "##팜": 3360,
      "##솜": 3361,
      "##헙": 3362,
      "##첸": 3363,
      "##짢": 3364,
      "##뼈": 3365,
      "##뉜": 3366,
      "##탉": 3367,
      "##㎏": 3368,
      "##갤": 3369,
      "##찹": 3370,
      "##맡": 3371,
      "##띔": 3372,
      "##ç": 3373,
      "##찡": 3374,
      "##썰": 3375,
      "##퀘": 3376,
      "##괭": 3377,
      "##덱": 3378,
      "##늑": 3379,
      "##앳": 3380,
      "##쏘": 3381,
      "##ơ": 3382,
      "##꾹": 3383,
      "##쟈": 3384,
      "##쎄": 3385,
      "##갛": 3386,
      "##밧": 3387,
      "##껫": 3388,
      "##푯": 3389,
      "##핌": 3390,
      "##넉": 3391,
      "##얏": 3392,
      "##슛": 3393,
      "##ö": 3394,
      "##쨋": 3395,
      "##딧": 3396,
      "##섹": 3397,
      "##퉜": 3398,
      "##녹": 3399,
      "##춥": 3400,
      "##퉤": 3401,
      "##밈": 3402,
      "##캬": 3403,
      "##믈": 3404,
      "##찼": 3405,
      "##옹": 3406,
      "##꼼": 3407,
      "##쿵": 3408,
      "##뵈": 3409,
      "##챙": 3410,
      "##켈": 3411,
      "##쾨": 3412,
      "##잭": 3413,
      "##틋": 3414,
      "##꿍": 3415,
      "##찝": 3416,
      "##㎝": 3417,
      "##잇": 3418,
      "##잤": 3419,
      "##닢": 3420,
      "##ø": 3421,
      "##쫄": 3422,
      "##빽": 3423,
      "##꽁": 3424,
      "##땀": 3425,
      "##쯔": 3426,
      "##훅": 3427,
      "##컹": 3428,
      "##눕": 3429,
      "##끙": 3430,
      "##뷸": 3431,
      "##횡": 3432,
      "##쑈": 3433,
      "##핸": 3434,
      "##찔": 3435,
      "##뜬": 3436,
      "##볍": 3437,
      "##뎠": 3438,
      "##갬": 3439,
      "##ầ": 3440,
      "##뀜": 3441,
      "##낑": 3442,
      "##꿋": 3443,
      "##○": 3444,
      "##뜸": 3445,
      "##흙": 3446,
      "##좁": 3447,
      "##잘": 3448,
      "##웜": 3449,
      "##ﬁ": 3450,
      "##듦": 3451,
      "##쨌": 3452,
      "##넙": 3453,
      "##펐": 3454,
      "##팁": 3455,
      "##ó": 3456,
      "##￦": 3457,
      "##è": 3458,
      "##핬": 3459,
      "##얗": 3460,
      "##퀸": 3461,
      "##숩": 3462,
      "##퍽": 3463,
      "##겸": 3464,
      "##샌": 3465,
      "##멩": 3466,
      "##뮬": 3467,
      "##땐": 3468,
      "##á": 3469,
      "##끽": 3470,
      "##뻥": 3471,
      "##멕": 3472,
      "##냔": 3473,
      "##튬": 3474,
      "##갯": 3475,
      "##맸": 3476,
      "##굣": 3477,
      "##ㆍ": 3478,
      "##뿜": 3479,
      "##깟": 3480,
      "##갰": 3481,
      "##녜": 3482,
      "##잼": 3483,
      "##늠": 3484,
      "##슥": 3485,
      "##흑": 3486,
      "##쑤": 3487,
      "##챱": 3488,
      "##짚": 3489,
      "##엣": 3490,
      "##뻑": 3491,
      "##뺄": 3492,
      "##얽": 3493,
      "##곗": 3494,
      "##묶": 3495,
      "##뜯": 3496,
      "##꺽": 3497,
      "##댕": 3498,
      "##뀝": 3499,
      "##랖": 3500,
      "##왼": 3501,
      "##됬": 3502,
      "##쏠": 3503,
      "##앨": 3504,
      "##푹": 3505,
      "##깎": 3506,
      "##뤼": 3507,
      "##社": 3508,
      "##쁩": 3509,
      "##윕": 3510,
      "##숯": 3511,
      "##띡": 3512,
      "##풋": 3513,
      "##앵": 3514,
      "##쿰": 3515,
      "##옆": 3516,
      "##쾅": 3517,
      "##잿": 3518,
      "##멈": 3519,
      "##쌰": 3520,
      "##쨍": 3521,
      "##뗑": 3522,
      "##₁": 3523,
      "##쓱": 3524,
      "##챈": 3525,
      "##벵": 3526,
      "##ü": 3527,
      "##큠": 3528,
      "##몄": 3529,
      "##캣": 3530,
      "##뒹": 3531,
      "##빳": 3532,
      "##º": 3533,
      "##꿉": 3534,
      "##귐": 3535,
      "##℉": 3536,
      "##옛": 3537,
      "##곘": 3538,
      "##ư": 3539,
      "##얹": 3540,
      "##쉼": 3541,
      "##₂": 3542,
      "##헀": 3543,
      "##짤": 3544,
      "##ú": 3545,
      "##캄": 3546,
      "##튠": 3547,
      "##떴": 3548,
      "##젔": 3549,
      "##젹": 3550,
      "##챤": 3551,
      "##쩝": 3552,
      "##˚": 3553,
      "##툽": 3554,
      "##멤": 3555,
      "##땜": 3556,
      "##텟": 3557,
      "##â": 3558,
      "##쉑": 3559,
      "##깄": 3560,
      "##윽": 3561,
      "##넸": 3562,
      "##슝": 3563,
      "##흩": 3564,
      "##렜": 3565,
      "##쌉": 3566,
      "##à": 3567,
      "##美": 3568,
      "##떳": 3569,
      "##섀": 3570,
      "##횟": 3571,
      "##맺": 3572,
      "##괘": 3573,
      "##뽑": 3574,
      "##컫": 3575,
      "##펑": 3576,
      "##녘": 3577,
      "##얌": 3578,
      "##홉": 3579,
      "##뉩": 3580,
      "##냘": 3581,
      "##뿔": 3582,
      "##ñ": 3583,
      "##틔": 3584,
      "##ð": 3585,
      "##깻": 3586,
      "##믐": 3587,
      "##⃗": 3588,
      "##텁": 3589,
      "##뎁": 3590,
      "##Ⅰ": 3591,
      "##쳡": 3592,
      "##쩔": 3593,
      "##ỏ": 3594,
      "##돤": 3595,
      "##눗": 3596,
      "##갗": 3597,
      "##죤": 3598,
      "##왜": 3599,
      "##쪄": 3600,
      "##귈": 3601,
      "##츈": 3602,
      "##쬔": 3603,
      "##옴": 3604,
      "##뇜": 3605,
      "##믄": 3606,
      "##돍": 3607,
      "##옇": 3608,
      "##솟": 3609,
      "##뒷": 3610,
      "##훔": 3611,
      "##뵀": 3612,
      "##킁": 3613,
      "##챦": 3614,
      "##뎀": 3615,
      "##곁": 3616,
      "##짇": 3617,
      "##덥": 3618,
      "##캇": 3619,
      "##껌": 3620,
      "##숄": 3621,
      "##잊": 3622,
      "##튤": 3623,
      "##깬": 3624,
      "##샬": 3625,
      "##㎈": 3626,
      "##굿": 3627,
      "##ㅅ": 3628,
      "##ě": 3629,
      "##옌": 3630,
      "##랠": 3631,
      "##촨": 3632,
      "##쪘": 3633,
      "##탤": 3634,
      "##닦": 3635,
      "##š": 3636,
      "##뽈": 3637,
      "##늉": 3638,
      "##갚": 3639,
      "##헛": 3640,
      "##츰": 3641,
      "##닏": 3642,
      "##먀": 3643,
      "##팥": 3644,
      "##밉": 3645,
      "##㈜": 3646,
      "##㎢": 3647,
      "##뜹": 3648,
      "##푀": 3649,
      "##퓌": 3650,
      "##쏭": 3651,
      "##멋": 3652,
      "##삯": 3653,
      "##됀": 3654,
      "##∼": 3655,
      "##헉": 3656,
      "##칵": 3657,
      "##숱": 3658,
      "##붉": 3659,
      "##갓": 3660,
      "##궃": 3661,
      "##㏈": 3662,
      "##Ω": 3663,
      "##ㅡ": 3664,
      "##삑": 3665,
      "##쪼": 3666,
      "##쭘": 3667,
      "##씽": 3668,
      "##퇘": 3669,
      "##읩": 3670,
      "##뿍": 3671,
      "##읽": 3672,
      "##랏": 3673,
      "##왑": 3674,
      "##룟": 3675,
      "##쾃": 3676,
      "##믿": 3677,
      "##뎃": 3678,
      "##㎡": 3679,
      "##묻": 3680,
      "##갠": 3681,
      "##≡": 3682,
      "##냑": 3683,
      "##넜": 3684,
      "##혓": 3685,
      "##겊": 3686,
      "##웬": 3687,
      "##칢": 3688,
      "##ㅇ": 3689,
      "##흰": 3690,
      "##촐": 3691,
      "##～": 3692,
      "##뀐": 3693,
      "##톳": 3694,
      "##헣": 3695,
      "##곧": 3696,
      "##젖": 3697,
      "##뎅": 3698,
      "##뽁": 3699,
      "##햐": 3700,
      "##롣": 3701,
      "##붐": 3702,
      "##귑": 3703,
      "##ē": 3704,
      "##딛": 3705,
      "##잃": 3706,
      "##풂": 3707,
      "##ᅟ": 3708,
      "##ᅥ": 3709,
      "##ᆪ": 3710,
      "##빕": 3711,
      "##웹": 3712,
      "##뺵": 3713,
      "##짧": 3714,
      "##릐": 3715,
      "##㎛": 3716,
      "##휠": 3717,
      "##앰": 3718,
      "##숑": 3719,
      "##씸": 3720,
      "##흴": 3721,
      "##슭": 3722,
      "##솝": 3723,
      "##갖": 3724,
      "##욜": 3725,
      "##쥠": 3726,
      "##ㅏ": 3727,
      "##ㄹ": 3728,
      "##빤": 3729,
      "##휙": 3730,
      "##낍": 3731,
      "##ş": 3732,
      "##멓": 3733,
      "##솨": 3734,
      "##꾳": 3735,
      "##➡": 3736,
      "##쏙": 3737,
      "##뵌": 3738,
      "##뭐": 3739,
      "##ã": 3740,
      "##떵": 3741,
      "##찐": 3742,
      "##굵": 3743,
      "##캘": 3744,
      "##윅": 3745,
      "##쩜": 3746,
      "##ố": 3747,
      "##씁": 3748,
      "##걍": 3749,
      "##돕": 3750,
      "##뉠": 3751,
      "##샨": 3752,
      "##갭": 3753,
      "##₃": 3754,
      "##츨": 3755,
      "##짠": 3756,
      "##㎜": 3757,
      "##딥": 3758,
      "##쯩": 3759,
      "##뭅": 3760,
      "##퉈": 3761,
      "##퓸": 3762,
      "##껀": 3763,
      "##샅": 3764,
      "##ı": 3765,
      "##뷧": 3766,
      "##셧": 3767,
      "##쉰": 3768,
      "##욤": 3769,
      "##샛": 3770,
      "##꽉": 3771,
      "##켑": 3772,
      "##홧": 3773,
      "##뵐": 3774,
      "##엡": 3775,
      "##콸": 3776,
      "##및": 3777,
      "##챃": 3778,
      "##촛": 3779,
      "##륫": 3780,
      "##ï": 3781,
      "##윳": 3782,
      "##얐": 3783,
      "##뮈": 3784,
      "##쩐": 3785,
      "##왁": 3786,
      "##펨": 3787,
      "##낫": 3788,
      "##µ": 3789,
      "##겆": 3790,
      "##빚": 3791,
      "##쮸": 3792,
      "##ㄷ": 3793,
      "##늪": 3794,
      "##꼿": 3795,
      "##탰": 3796,
      "##짼": 3797,
      "##ć": 3798,
      "##썬": 3799,
      "##뻘": 3800,
      "##쬐": 3801,
      "##뷴": 3802,
      "##먄": 3803,
      "##꾀": 3804,
      "##씌": 3805,
      "##씹": 3806,
      "##됍": 3807,
      "##싫": 3808,
      "##훤": 3809,
      "##츌": 3810,
      "##ê": 3811,
      "##폽": 3812,
      "##챕": 3813,
      "##옙": 3814,
      "##뺌": 3815,
      "##끕": 3816,
      "##훌": 3817,
      "##닼": 3818,
      "##뛸": 3819,
      "##û": 3820,
      "##¬": 3821,
      "##줒": 3822,
      "##엾": 3823,
      "##ㅠ": 3824,
      "##퀏": 3825,
      "##휼": 3826,
      "##녈": 3827,
      "##ㅔ": 3828,
      "##웸": 3829,
      "##숖": 3830,
      "##칟": 3831,
      "##ǎ": 3832,
      "##ī": 3833,
      "##켠": 3834,
      "##윌": 3835,
      "##쉈": 3836,
      "##®": 3837,
      "##앚": 3838,
      "##ﬂ": 3839,
      "##딫": 3840,
      "##ㅈ": 3841,
      "##툿": 3842,
      "##뫼": 3843,
      "##겋": 3844,
      "##떱": 3845,
      "##ŏ": 3846,
      "##TA": 3847,
      "##OS": 3848,
      "##RT": 3849,
      "EOS": 3850,
      "STA": 3851,
      "START": 3852,
      "##he": 3853,
      "the": 3854,
      "##ou": 3855,
      "##in": 3856,
      "##re": 3857,
      "##er": 3858,
      "to": 3859,
      "##on": 3860,
      "##an": 3861,
      "##at": 3862,
      "##니다": 3863,
      "##or": 3864,
      "##ing": 3865,
      "##en": 3866,
      "you": 3867,
      "##es": 3868,
      "##ed": 3869,
      "th": 3870,
      "an": 3871,
      "##ll": 3872,
      "##it": 3873,
      "##as": 3874,
      "in": 3875,
      "##ar": 3876,
      "##is": 3877,
      "##om": 3878,
      "##le": 3879,
      "is": 3880,
      "of": 3881,
      "be": 3882,
      "##ve": 3883,
      "and": 3884,
      "##습니다": 3885,
      "##ic": 3886,
      "##et": 3887,
      "##ay": 3888,
      "it": 3889,
      "##ow": 3890,
      "##ot": 3891,
      "##ion": 3892,
      "##al": 3893,
      "##ut": 3894,
      "##ent": 3895,
      "re": 3896,
      "##us": 3897,
      "ha": 3898,
      "for": 3899,
      "on": 3900,
      "##ct": 3901,
      "##ld": 3902,
      "we": 3903,
      "##ce": 3904,
      "The": 3905,
      "that": 3906,
      "##어요": 3907,
      "##ro": 3908,
      "##ke": 3909,
      "##oo": 3910,
      "me": 3911,
      "##ly": 3912,
      "st": 3913,
      "##id": 3914,
      "##ill": 3915,
      "##ch": 3916,
      "##ur": 3917,
      "##gh": 3918,
      "have": 3919,
      "##ith": 3920,
      "##am": 3921,
      "##에서": 3922,
      "with": 3923,
      "당신": 3924,
      "##im": 3925,
      "##st": 3926,
      "can": 3927,
      "are": 3928,
      "##ore": 3929,
      "##으로": 3930,
      "##ter": 3931,
      "so": 3932,
      "my": 3933,
      "##se": 3934,
      "li": 3935,
      "do": 3936,
      "##ation": 3937,
      "##ould": 3938,
      "##ad": 3939,
      "wh": 3940,
      "##ir": 3941,
      "##ver": 3942,
      "will": 3943,
      "pro": 3944,
      "##ri": 3945,
      "this": 3946,
      "he": 3947,
      "ne": 3948,
      "as": 3949,
      "##입니다": 3950,
      "##ant": 3951,
      "at": 3952,
      "나는": 3953,
      "우리": 3954,
      "your": 3955,
      "com": 3956,
      "##all": 3957,
      "sh": 3958,
      "was": 3959,
      "##end": 3960,
      "go": 3961,
      "##ght": 3962,
      "se": 3963,
      "It": 3964,
      "##pp": 3965,
      "##ck": 3966,
      "##her": 3967,
      "not": 3968,
      "con": 3969,
      "##ase": 3970,
      "##ge": 3971,
      "##op": 3972,
      "##nd": 3973,
      "##il": 3974,
      "##est": 3975,
      "ex": 3976,
      "##세요": 3977,
      "저는": 3978,
      "##하는": 3979,
      "but": 3980,
      "##nt": 3981,
      "de": 3982,
      "##ake": 3983,
      "ab": 3984,
      "##out": 3985,
      "##합니다": 3986,
      "ch": 3987,
      "fr": 3988,
      "wor": 3989,
      "##ul": 3990,
      "like": 3991,
      "있습니다": 3992,
      "##ate": 3993,
      "We": 3994,
      "Th": 3995,
      "##하고": 3996,
      "whe": 3997,
      "tim": 3998,
      "##ain": 3999,
      "##lease": 4000,
      "##나요": 4001,
      "##에게": 4002,
      "##ink": 4003,
      "##ers": 4004,
      "##use": 4005,
      "##ust": 4006,
      "##ble": 4007,
      "##ment": 4008,
      "있는": 4009,
      "##du": 4010,
      "su": 4011,
      "##ess": 4012,
      "##ood": 4013,
      "or": 4014,
      "bec": 4015,
      "want": 4016,
      "there": 4017,
      "##ight": 4018,
      "##th": 4019,
      "time": 4020,
      "tr": 4021,
      "from": 4022,
      "##ause": 4023,
      "##ive": 4024,
      "al": 4025,
      "##ome": 4026,
      "get": 4027,
      "##art": 4028,
      "##ard": 4029,
      "##if": 4030,
      "##os": 4031,
      "You": 4032,
      "##day": 4033,
      "if": 4034,
      "##ong": 4035,
      "##ort": 4036,
      "am": 4037,
      "about": 4038,
      "##는데": 4039,
      "think": 4040,
      "##fe": 4041,
      "##ice": 4042,
      "##one": 4043,
      "##ook": 4044,
      "pl": 4045,
      "##ure": 4046,
      "by": 4047,
      "##에요": 4048,
      "##and": 4049,
      "사람": 4050,
      "us": 4051,
      "comp": 4052,
      "##now": 4053,
      "##el": 4054,
      "te": 4055,
      "##un": 4056,
      "because": 4057,
      "##지만": 4058,
      "##any": 4059,
      "##ak": 4060,
      "##ol": 4061,
      "when": 4062,
      "##ig": 4063,
      "know": 4064,
      "mo": 4065,
      "work": 4066,
      "Wh": 4067,
      "##ast": 4068,
      "##ist": 4069,
      "##ally": 4070,
      "##니까": 4071,
      "생각": 4072,
      "le": 4073,
      "don": 4074,
      "##해서": 4075,
      "제가": 4076,
      "##red": 4077,
      "produ": 4078,
      "##ry": 4079,
      "##act": 4080,
      "##um": 4081,
      "##res": 4082,
      "##pe": 4083,
      "내가": 4084,
      "##ame": 4085,
      "##ud": 4086,
      "##ity": 4087,
      "cl": 4088,
      "##이에요": 4089,
      "##fter": 4090,
      "product": 4091,
      "Kore": 4092,
      "##해요": 4093,
      "has": 4094,
      "out": 4095,
      "would": 4096,
      "all": 4097,
      "##ie": 4098,
      "##ack": 4099,
      "up": 4100,
      "##em": 4101,
      "##ind": 4102,
      "any": 4103,
      "##다고": 4104,
      "##겠습니다": 4105,
      "Please": 4106,
      "오늘": 4107,
      "ll": 4108,
      "good": 4109,
      "If": 4110,
      "##ays": 4111,
      "need": 4112,
      "fe": 4113,
      "우리는": 4114,
      "##rou": 4115,
      "##ap": 4116,
      "##들이": 4117,
      "one": 4118,
      "##age": 4119,
      "##ous": 4120,
      "##ven": 4121,
      "##00": 4122,
      "당신은": 4123,
      "This": 4124,
      "##mp": 4125,
      "ad": 4126,
      "che": 4127,
      "##에는": 4128,
      "our": 4129,
      "##들은": 4130,
      "after": 4131,
      "지금": 4132,
      "##ish": 4133,
      "pe": 4134,
      "한국": 4135,
      "##아요": 4136,
      "##are": 4137,
      "당신이": 4138,
      "##ople": 4139,
      "##ther": 4140,
      "pr": 4141,
      "lo": 4142,
      "co": 4143,
      "##ide": 4144,
      "있어요": 4145,
      "now": 4146,
      "##ies": 4147,
      "##가요": 4148,
      "more": 4149,
      "##ac": 4150,
      "There": 4151,
      "should": 4152,
      "##riend": 4153,
      "시간": 4154,
      "ag": 4155,
      "##까지": 4156,
      "cont": 4157,
      "##었습니다": 4158,
      "##하게": 4159,
      "##ine": 4160,
      "take": 4161,
      "res": 4162,
      "##ear": 4163,
      "##ag": 4164,
      "##하지": 4165,
      "people": 4166,
      "who": 4167,
      "##qu": 4168,
      "있어": 4169,
      "##ail": 4170,
      "make": 4171,
      "##까요": 4172,
      "##ace": 4173,
      "int": 4174,
      "##ount": 4175,
      "합니다": 4176,
      "##very": 4177,
      "en": 4178,
      "did": 4179,
      "##ass": 4180,
      "##ang": 4181,
      "what": 4182,
      "##ip": 4183,
      "##ep": 4184,
      "##cc": 4185,
      "제품": 4186,
      "때문": 4187,
      "##our": 4188,
      "##iz": 4189,
      "too": 4190,
      "exp": 4191,
      "##iv": 4192,
      "너무": 4193,
      "going": 4194,
      "보내": 4195,
      "##irst": 4196,
      "##으면": 4197,
      "app": 4198,
      "친구": 4199,
      "been": 4200,
      "What": 4201,
      "just": 4202,
      "##다면": 4203,
      "사용": 4204,
      "##ave": 4205,
      "##이라": 4206,
      "##ick": 4207,
      "look": 4208,
      "##so": 4209,
      "they": 4210,
      "How": 4211,
      "He": 4212,
      "friend": 4213,
      "##ue": 4214,
      "here": 4215,
      "some": 4216,
      "other": 4217,
      "##der": 4218,
      "##ance": 4219,
      "##ach": 4220,
      "확인": 4221,
      "check": 4222,
      "##able": 4223,
      "##ich": 4224,
      "다른": 4225,
      "please": 4226,
      "qu": 4227,
      "##ult": 4228,
      "##xt": 4229,
      "send": 4230,
      "than": 4231,
      "see": 4232,
      "많이": 4233,
      "##ite": 4234,
      "##ery": 4235,
      "##ci": 4236,
      "today": 4237,
      "##orm": 4238,
      "them": 4239,
      "pre": 4240,
      "좋아": 4241,
      "##주세요": 4242,
      "Do": 4243,
      "##ber": 4244,
      "bus": 4245,
      "##row": 4246,
      "right": 4247,
      "가능": 4248,
      "lot": 4249,
      "My": 4250,
      "sa": 4251,
      "당신의": 4252,
      "Korea": 4253,
      "##네요": 4254,
      "bu": 4255,
      "##부터": 4256,
      "##ans": 4257,
      "##ng": 4258,
      "##ress": 4259,
      "stud": 4260,
      "ro": 4261,
      "sp": 4262,
      "필요": 4263,
      "off": 4264,
      "##ated": 4265,
      "dif": 4266,
      "could": 4267,
      "##하기": 4268,
      "first": 4269,
      "##ince": 4270,
      "##하면": 4271,
      "##다는": 4272,
      "no": 4273,
      "##ign": 4274,
      "mu": 4275,
      "아니": 4276,
      "##적인": 4277,
      "##ek": 4278,
      "dis": 4279,
      "하는": 4280,
      "company": 4281,
      "sc": 4282,
      "##시면": 4283,
      "use": 4284,
      "그녀": 4285,
      "그것": 4286,
      "##했어요": 4287,
      "In": 4288,
      "##ile": 4289,
      "how": 4290,
      "only": 4291,
      "정말": 4292,
      "있나요": 4293,
      "##ool": 4294,
      "day": 4295,
      "있을": 4296,
      "##리고": 4297,
      "##ater": 4298,
      "여기": 4299,
      "part": 4300,
      "year": 4301,
      "much": 4302,
      "##했습니다": 4303,
      "Is": 4304,
      "ve": 4305,
      "##ab": 4306,
      "##lo": 4307,
      "well": 4308,
      "ar": 4309,
      "new": 4310,
      "##si": 4311,
      "let": 4312,
      "un": 4313,
      "##ade": 4314,
      "##ange": 4315,
      "이번": 4316,
      "many": 4317,
      "Whe": 4318,
      "##ition": 4319,
      "very": 4320,
      "imp": 4321,
      "것입니다": 4322,
      "week": 4323,
      "##erv": 4324,
      "had": 4325,
      "##예요": 4326,
      "10": 4327,
      "다음": 4328,
      "해요": 4329,
      "##ings": 4330,
      "pers": 4331,
      "어떻": 4332,
      "##ree": 4333,
      "ph": 4334,
      "가지": 4335,
      "##fore": 4336,
      "##하여": 4337,
      "also": 4338,
      "which": 4339,
      "next": 4340,
      "##ning": 4341,
      "bet": 4342,
      "다시": 4343,
      "많은": 4344,
      "##alk": 4345,
      "것이": 4346,
      "저희": 4347,
      "meet": 4348,
      "##들을": 4349,
      "어떻게": 4350,
      "좋은": 4351,
      "were": 4352,
      "알려": 4353,
      "come": 4354,
      "##ark": 4355,
      "every": 4356,
      "회사": 4357,
      "것을": 4358,
      "Can": 4359,
      "그렇": 4360,
      "위해": 4361,
      "##od": 4362,
      "person": 4363,
      "call": 4364,
      "##form": 4365,
      "##해야": 4366,
      "그래": 4367,
      "long": 4368,
      "feel": 4369,
      "문제": 4370,
      "이것": 4371,
      "##기를": 4372,
      "##ction": 4373,
      "가장": 4374,
      "wr": 4375,
      "##도록": 4376,
      "del": 4377,
      "happ": 4378,
      "give": 4379,
      "per": 4380,
      "pos": 4381,
      "그러": 4382,
      "again": 4383,
      "##ank": 4384,
      "##게요": 4385,
      "order": 4386,
      "##rent": 4387,
      "##itt": 4388,
      "그는": 4389,
      "때문에": 4390,
      "주문": 4391,
      "들어": 4392,
      "##ving": 4393,
      "back": 4394,
      "since": 4395,
      "##ents": 4396,
      "##chool": 4397,
      "acc": 4398,
      "##ary": 4399,
      "over": 4400,
      "##hing": 4401,
      "##mor": 4402,
      "어떤": 4403,
      "##get": 4404,
      "##ious": 4405,
      "pay": 4406,
      "rep": 4407,
      "##ict": 4408,
      "tell": 4409,
      "##ence": 4410,
      "##었어요": 4411,
      "##라고": 4412,
      "##적으로": 4413,
      "같은": 4414,
      "사진": 4415,
      "대한": 4416,
      "does": 4417,
      "##hed": 4418,
      "br": 4419,
      "함께": 4420,
      "att": 4421,
      "##ily": 4422,
      "school": 4423,
      "##other": 4424,
      "##reat": 4425,
      "ask": 4426,
      "##ild": 4427,
      "20": 4428,
      "##lp": 4429,
      "her": 4430,
      "spe": 4431,
      "rec": 4432,
      "won": 4433,
      "last": 4434,
      "##요일": 4435,
      "##ra": 4436,
      "하고": 4437,
      "##lf": 4438,
      "##립니다": 4439,
      "inc": 4440,
      "help": 4441,
      "before": 4442,
      "Yes": 4443,
      "even": 4444,
      "##nder": 4445,
      "op": 4446,
      "##습니까": 4447,
      "Ch": 4448,
      "made": 4449,
      "##ren": 4450,
      "man": 4451,
      "아이": 4452,
      "got": 4453,
      "rece": 4454,
      "tw": 4455,
      "hard": 4456,
      "##ought": 4457,
      "##ough": 4458,
      "sm": 4459,
      "##ect": 4460,
      "fam": 4461,
      "##어서": 4462,
      "##려고": 4463,
      "eat": 4464,
      "po": 4465,
      "really": 4466,
      "##orry": 4467,
      "네가": 4468,
      "##sible": 4469,
      "##omet": 4470,
      "food": 4471,
      "his": 4472,
      "##vie": 4473,
      "add": 4474,
      "##lish": 4475,
      "diffe": 4476,
      "But": 4477,
      "만들": 4478,
      "way": 4479,
      "##ff": 4480,
      "Then": 4481,
      "When": 4482,
      "##ens": 4483,
      "room": 4484,
      "under": 4485,
      "##ire": 4486,
      "buy": 4487,
      "같아": 4488,
      "거예요": 4489,
      "home": 4490,
      "같이": 4491,
      "##ose": 4492,
      "##ting": 4493,
      "##way": 4494,
      "car": 4495,
      "tri": 4496,
      "gr": 4497,
      "우리가": 4498,
      "That": 4499,
      "음식": 4500,
      "show": 4501,
      "their": 4502,
      "그리고": 4503,
      "##보다": 4504,
      "des": 4505,
      "place": 4506,
      "Eng": 4507,
      "book": 4508,
      "##겠어요": 4509,
      "##blem": 4510,
      "##round": 4511,
      "Korean": 4512,
      "진행": 4513,
      "여행": 4514,
      "reg": 4515,
      "##oy": 4516,
      "problem": 4517,
      "##ope": 4518,
      "where": 4519,
      "##de": 4520,
      "##랍니다": 4521,
      "##rough": 4522,
      "##iness": 4523,
      "try": 4524,
      "연락": 4525,
      "하나": 4526,
      "모든": 4527,
      "내일": 4528,
      "거야": 4529,
      "그럼": 4530,
      "언제": 4531,
      "days": 4532,
      "대해": 4533,
      "바랍니다": 4534,
      "didn": 4535,
      "rest": 4536,
      "000": 4537,
      "같아요": 4538,
      "##ations": 4539,
      "most": 4540,
      "##ved": 4541,
      "##ouse": 4542,
      "것은": 4543,
      "vis": 4544,
      "English": 4545,
      "start": 4546,
      "##int": 4547,
      "fin": 4548,
      "num": 4549,
      "혹시": 4550,
      "gu": 4551,
      "him": 4552,
      "정도": 4553,
      "fl": 4554,
      "requ": 4555,
      "됩니다": 4556,
      "##aking": 4557,
      "through": 4558,
      "jo": 4559,
      "sorry": 4560,
      "어디": 4561,
      "영화": 4562,
      "##morrow": 4563,
      "tomorrow": 4564,
      "않았": 4565,
      "##ways": 4566,
      "two": 4567,
      "somet": 4568,
      "주세요": 4569,
      "##atch": 4570,
      "얼마": 4571,
      "##ory": 4572,
      "##pt": 4573,
      "So": 4574,
      "mon": 4575,
      "영어": 4576,
      "##ial": 4577,
      "##들의": 4578,
      "##ason": 4579,
      "##ft": 4580,
      "감사": 4581,
      "hope": 4582,
      "##les": 4583,
      "부탁": 4584,
      "##amp": 4585,
      "possible": 4586,
      "그런": 4587,
      "char": 4588,
      "these": 4589,
      "dr": 4590,
      "##해주": 4591,
      "##ful": 4592,
      "say": 4593,
      "하지만": 4594,
      "##ady": 4595,
      "ke": 4596,
      "plan": 4597,
      "rel": 4598,
      "talk": 4599,
      "##og": 4600,
      "##thing": 4601,
      "friends": 4602,
      "보고": 4603,
      "준비": 4604,
      "bel": 4605,
      "##ise": 4606,
      "always": 4607,
      "she": 4608,
      "조금": 4609,
      "시작": 4610,
      "##ions": 4611,
      "class": 4612,
      "##hes": 4613,
      "better": 4614,
      "##ound": 4615,
      "##av": 4616,
      "act": 4617,
      "전화": 4618,
      "ear": 4619,
      "fo": 4620,
      "dep": 4621,
      "무엇": 4622,
      "products": 4623,
      "##iver": 4624,
      "##는지": 4625,
      "##we": 4626,
      "play": 4627,
      "##icture": 4628,
      "number": 4629,
      "love": 4630,
      "picture": 4631,
      "inform": 4632,
      "inter": 4633,
      "cons": 4634,
      "into": 4635,
      "They": 4636,
      "change": 4637,
      "고객": 4638,
      "life": 4639,
      "##oney": 4640,
      "##akes": 4641,
      "예약": 4642,
      "##ffe": 4643,
      "best": 4644,
      "##ize": 4645,
      "##하세요": 4646,
      "Let": 4647,
      "##vel": 4648,
      "used": 4649,
      "없습니다": 4650,
      "마음": 4651,
      "ref": 4652,
      "different": 4653,
      "##ec": 4654,
      "##되어": 4655,
      "##ond": 4656,
      "##igh": 4657,
      "sub": 4658,
      "##ert": 4659,
      "then": 4660,
      "##urn": 4661,
      "same": 4662,
      "find": 4663,
      "##ait": 4664,
      "사랑": 4665,
      "##ical": 4666,
      "##ather": 4667,
      "##own": 4668,
      "em": 4669,
      "##ems": 4670,
      "She": 4671,
      "sent": 4672,
      "바로": 4673,
      "##었어": 4674,
      "sk": 4675,
      "아직": 4676,
      "trans": 4677,
      "##und": 4678,
      "##ester": 4679,
      "visit": 4680,
      "business": 4681,
      "싶습니다": 4682,
      "##ors": 4683,
      "price": 4684,
      "##드립니다": 4685,
      "why": 4686,
      "kind": 4687,
      "있으": 4688,
      "house": 4689,
      "things": 4690,
      "month": 4691,
      "##ub": 4692,
      "이용": 4693,
      "while": 4694,
      "dec": 4695,
      "##ustom": 4696,
      "##지를": 4697,
      "went": 4698,
      "모두": 4699,
      "study": 4700,
      "##기가": 4701,
      "put": 4702,
      "##한테": 4703,
      "##지는": 4704,
      "##스를": 4705,
      "hot": 4706,
      "##이나": 4707,
      "구매": 4708,
      "##리를": 4709,
      "As": 4710,
      "가격": 4711,
      "##cess": 4712,
      "그녀는": 4713,
      "##ied": 4714,
      "##cial": 4715,
      "학교": 4716,
      "bl": 4717,
      "프로": 4718,
      "나의": 4719,
      "30": 4720,
      "새로": 4721,
      "전에": 4722,
      "##하시": 4723,
      "count": 4724,
      "##ye": 4725,
      "money": 4726,
      "around": 4727,
      "wait": 4728,
      "##리는": 4729,
      "Thank": 4730,
      "싶은": 4731,
      "each": 4732,
      "사이": 4733,
      "시간이": 4734,
      "괜찮": 4735,
      "##stand": 4736,
      "custom": 4737,
      "##gether": 4738,
      "##ell": 4739,
      "사람이": 4740,
      "something": 4741,
      "방법": 4742,
      "conf": 4743,
      "##ittle": 4744,
      "inv": 4745,
      "##ipp": 4746,
      "##ia": 4747,
      "여러": 4748,
      "어제": 4749,
      "##ord": 4750,
      "rem": 4751,
      "##ner": 4752,
      "기다": 4753,
      "너는": 4754,
      "그래서": 4755,
      "##self": 4756,
      "모르": 4757,
      "##들과": 4758,
      "little": 4759,
      "##uring": 4760,
      "##ru": 4761,
      "thought": 4762,
      "매우": 4763,
      "##mer": 4764,
      "together": 4765,
      "serv": 4766,
      "care": 4767,
      "알고": 4768,
      "이유": 4769,
      "여자": 4770,
      "pass": 4771,
      "disc": 4772,
      "이것은": 4773,
      "import": 4774,
      "keep": 4775,
      "해야": 4776,
      "inst": 4777,
      "##아서": 4778,
      "col": 4779,
      "죄송": 4780,
      "pur": 4781,
      "soon": 4782,
      "공부": 4783,
      "현재": 4784,
      "이제": 4785,
      "요청": 4786,
      "still": 4787,
      "가지고": 4788,
      "##스트": 4789,
      "supp": 4790,
      "##ually": 4791,
      "min": 4792,
      "도착": 4793,
      "hand": 4794,
      "##pect": 4795,
      "##인가요": 4796,
      "남자": 4797,
      "Why": 4798,
      "##ere": 4799,
      "pres": 4800,
      "great": 4801,
      "trip": 4802,
      "cur": 4803,
      "said": 4804,
      "##드리": 4805,
      "중요": 4806,
      "##ased": 4807,
      "##iss": 4808,
      "##인데": 4809,
      "reason": 4810,
      "##let": 4811,
      "child": 4812,
      "##ments": 4813,
      "자신": 4814,
      "예정": 4815,
      "request": 4816,
      "##이야": 4817,
      "##에서는": 4818,
      "air": 4819,
      "To": 4820,
      "may": 4821,
      "따라": 4822,
      "big": 4823,
      "##하겠습니다": 4824,
      "##ces": 4825,
      "추가": 4826,
      "##lic": 4827,
      "family": 4828,
      "싶어요": 4829,
      "항상": 4830,
      "배송": 4831,
      "understand": 4832,
      "상품": 4833,
      "##대로": 4834,
      "information": 4835,
      "must": 4836,
      "것이에요": 4837,
      "##port": 4838,
      "happy": 4839,
      "##ific": 4840,
      "mark": 4841,
      "##ne": 4842,
      "만나": 4843,
      "team": 4844,
      "당신에게": 4845,
      "St": 4846,
      "free": 4847,
      "##에도": 4848,
      "contact": 4849,
      "came": 4850,
      "Al": 4851,
      "이야": 4852,
      "lear": 4853,
      "movie": 4854,
      "bo": 4855,
      "##ull": 4856,
      "##ever": 4857,
      "않습니다": 4858,
      "이미": 4859,
      "job": 4860,
      "같습니다": 4861,
      "##ream": 4862,
      "name": 4863,
      "##됩니다": 4864,
      "처음": 4865,
      "high": 4866,
      "##처럼": 4867,
      "down": 4868,
      "without": 4869,
      "있어서": 4870,
      "그것은": 4871,
      "fun": 4872,
      "ins": 4873,
      "being": 4874,
      "meeting": 4875,
      "##ines": 4876,
      "##이라고": 4877,
      "And": 4878,
      "##esterday": 4879,
      "yesterday": 4880,
      "##리가": 4881,
      "##ready": 4882,
      "##ract": 4883,
      "##았습니다": 4884,
      "경우": 4885,
      "이상": 4886,
      "말씀": 4887,
      "exper": 4888,
      "prep": 4889,
      "Se": 4890,
      "행복": 4891,
      "already": 4892,
      "동안": 4893,
      "가족": 4894,
      "such": 4895,
      "Are": 4896,
      "cle": 4897,
      "design": 4898,
      "또한": 4899,
      "일을": 4900,
      "arri": 4901,
      "수업": 4902,
      "부분": 4903,
      "아무": 4904,
      "##ject": 4905,
      "list": 4906,
      "##들에게": 4907,
      "card": 4908,
      "##ried": 4909,
      "일이": 4910,
      "건가요": 4911,
      "sec": 4912,
      "end": 4913,
      "chang": 4914,
      "store": 4915,
      "##ience": 4916,
      "##ular": 4917,
      "No": 4918,
      "sal": 4919,
      "using": 4920,
      "보여": 4921,
      "##ont": 4922,
      "가는": 4923,
      "ev": 4924,
      "##kay": 4925,
      "나에게": 4926,
      "heard": 4927,
      "left": 4928,
      "그들은": 4929,
      "있을까요": 4930,
      "##avel": 4931,
      "##셔서": 4932,
      "comm": 4933,
      "판매": 4934,
      "했어요": 4935,
      "##이고": 4936,
      "night": 4937,
      "##ating": 4938,
      "phone": 4939,
      "##ual": 4940,
      "##ty": 4941,
      "내용": 4942,
      "late": 4943,
      "years": 4944,
      "sy": 4945,
      "##ward": 4946,
      "##erest": 4947,
      "met": 4948,
      "away": 4949,
      "이해": 4950,
      "##해주세요": 4951,
      "집에": 4952,
      "가능한": 4953,
      "##gr": 4954,
      "##oth": 4955,
      "##일을": 4956,
      "있었": 4957,
      "##하지만": 4958,
      "##ient": 4959,
      "##ired": 4960,
      "hour": 4961,
      "set": 4962,
      "##fic": 4963,
      "만약": 4964,
      "interest": 4965,
      "##이트": 4966,
      "있는데": 4967,
      "##장을": 4968,
      "##기는": 4969,
      "eas": 4970,
      "그렇게": 4971,
      "str": 4972,
      "ac": 4973,
      "학생": 4974,
      "doesn": 4975,
      "travel": 4976,
      "working": 4977,
      "##드릴": 4978,
      "important": 4979,
      "##ced": 4980,
      "im": 4981,
      "관련": 4982,
      "world": 4983,
      "sure": 4984,
      "##ax": 4985,
      "water": 4986,
      "watch": 4987,
      "##정을": 4988,
      "during": 4989,
      "먼저": 4990,
      "##면서": 4991,
      "##라는": 4992,
      "test": 4993,
      "##ities": 4994,
      "##wn": 4995,
      "stay": 4996,
      "##사를": 4997,
      "당신을": 4998,
      "mor": 4999,
      "##omm": 5000,
      "##ves": 5001,
      "phot": 5002,
      "##cu": 5003,
      "##joy": 5004,
      "없어요": 5005,
      "cost": 5006,
      "나도": 5007,
      "##erm": 5008,
      "##ork": 5009,
      "never": 5010,
      "계속": 5011,
      "live": 5012,
      "아래": 5013,
      "노력": 5014,
      "##ntil": 5015,
      "its": 5016,
      "iss": 5017,
      "돌아": 5018,
      "##기에": 5019,
      "able": 5020,
      "##irm": 5021,
      "##llow": 5022,
      "##gg": 5023,
      "있다": 5024,
      "mom": 5025,
      "정보": 5026,
      "old": 5027,
      "##렇게": 5028,
      "새로운": 5029,
      "##dule": 5030,
      "호텔": 5031,
      "하는데": 5032,
      "통해": 5033,
      "##였습니다": 5034,
      "looking": 5035,
      "prov": 5036,
      "이름": 5037,
      "운동": 5038,
      "##gin": 5039,
      "det": 5040,
      "##학교": 5041,
      "저녁": 5042,
      "##not": 5043,
      "##ten": 5044,
      "##aur": 5045,
      "되어": 5046,
      "av": 5047,
      "morning": 5048,
      "없는": 5049,
      "another": 5050,
      "market": 5051,
      "##lud": 5052,
      "sho": 5053,
      "read": 5054,
      "물건": 5055,
      "enjoy": 5056,
      "var": 5057,
      "##ates": 5058,
      "오늘은": 5059,
      "drink": 5060,
      "##ared": 5061,
      "##velop": 5062,
      "once": 5063,
      "Jap": 5064,
      "##ficult": 5065,
      "이렇게": 5066,
      "difficult": 5067,
      "얼마나": 5068,
      "##되는": 5069,
      "Japan": 5070,
      "bre": 5071,
      "##hedule": 5072,
      "너의": 5073,
      "receiv": 5074,
      "##ility": 5075,
      "하지": 5076,
      "지난": 5077,
      "emp": 5078,
      "##hip": 5079,
      "country": 5080,
      "##하신": 5081,
      "##leep": 5082,
      "cannot": 5083,
      "minut": 5084,
      "빨리": 5085,
      "##ween": 5086,
      "201": 5087,
      "위한": 5088,
      "##air": 5089,
      "docu": 5090,
      "anything": 5091,
      "##인지": 5092,
      "learn": 5093,
      "12": 5094,
      "until": 5095,
      "med": 5096,
      "##ivers": 5097,
      "아침": 5098,
      "ret": 5099,
      "##ower": 5100,
      "fore": 5101,
      "미국": 5102,
      "##시간": 5103,
      "between": 5104,
      "않는": 5105,
      "reserv": 5106,
      "schedule": 5107,
      "##aurant": 5108,
      "##aut": 5109,
      "cor": 5110,
      "hotel": 5111,
      "##up": 5112,
      "follow": 5113,
      "Fr": 5114,
      "Could": 5115,
      "요즘": 5116,
      "adv": 5117,
      "service": 5118,
      "##주시": 5119,
      "restaurant": 5120,
      "develop": 5121,
      "상황": 5122,
      "도움": 5123,
      "##이는": 5124,
      "##ars": 5125,
      "싶어": 5126,
      "sur": 5127,
      "sit": 5128,
      "번째": 5129,
      "Bec": 5130,
      "due": 5131,
      "##군요": 5132,
      "ind": 5133,
      "제품을": 5134,
      "cour": 5135,
      "일본": 5136,
      "##atter": 5137,
      "##ics": 5138,
      "wom": 5139,
      "다양": 5140,
      "Because": 5141,
      "process": 5142,
      "##ody": 5143,
      "##ib": 5144,
      "있습니까": 5145,
      "email": 5146,
      "Did": 5147,
      "mus": 5148,
      "방문": 5149,
      "계획": 5150,
      "제공": 5151,
      "도와": 5152,
      "doing": 5153,
      "bad": 5154,
      "sell": 5155,
      "purch": 5156,
      "힘들": 5157,
      "##해보": 5158,
      "않아": 5159,
      "않을": 5160,
      "해서": 5161,
      "mind": 5162,
      "##거나": 5163,
      "##ung": 5164,
      "좋아하는": 5165,
      "이런": 5166,
      "getting": 5167,
      "##ality": 5168,
      "위해서": 5169,
      "open": 5170,
      "문제가": 5171,
      "become": 5172,
      "아주": 5173,
      "만들어": 5174,
      "가져": 5175,
      "sim": 5176,
      "되는": 5177,
      "없어": 5178,
      "주시": 5179,
      "color": 5180,
      "변경": 5181,
      "leave": 5182,
      "##lect": 5183,
      "ca": 5184,
      "office": 5185,
      "15": 5186,
      "디자": 5187,
      "##기로": 5188,
      "##ock": 5189,
      "##요일에": 5190,
      "##ok": 5191,
      "ho": 5192,
      "결제": 5193,
      "##cept": 5194,
      "seems": 5195,
      "##ath": 5196,
      "##ately": 5197,
      "##fer": 5198,
      "coll": 5199,
      "##ys": 5200,
      "##ier": 5201,
      "Don": 5202,
      "##per": 5203,
      "mean": 5204,
      "##ident": 5205,
      "present": 5206,
      "##이지": 5207,
      "yet": 5208,
      "Sh": 5209,
      "##arm": 5210,
      "bit": 5211,
      "##olog": 5212,
      "##있는": 5213,
      "##als": 5214,
      "##ized": 5215,
      "중국": 5216,
      "##자가": 5217,
      "100": 5218,
      "##alth": 5219,
      "small": 5220,
      "la": 5221,
      "하루": 5222,
      "##mb": 5223,
      "##ieve": 5224,
      "##its": 5225,
      "알아": 5226,
      "beaut": 5227,
      "##ided": 5228,
      "##인이": 5229,
      "thing": 5230,
      "부탁드립니다": 5231,
      "##ffect": 5232,
      "called": 5233,
      "않아요": 5234,
      "##cy": 5235,
      "##oice": 5236,
      "필요한": 5237,
      "loc": 5238,
      "걱정": 5239,
      "했습니다": 5240,
      "case": 5241,
      "하겠습니다": 5242,
      "main": 5243,
      "비용": 5244,
      "##겠어": 5245,
      "conc": 5246,
      "art": 5247,
      "couldn": 5248,
      "##view": 5249,
      "찾아": 5250,
      "For": 5251,
      "##ature": 5252,
      "가서": 5253,
      "하나요": 5254,
      "결과": 5255,
      "우리의": 5256,
      "그의": 5257,
      "##rodu": 5258,
      "선택": 5259,
      "대해서": 5260,
      "나를": 5261,
      "##fort": 5262,
      "##uation": 5263,
      "ext": 5264,
      "무슨": 5265,
      "그냥": 5266,
      "includ": 5267,
      "있으면": 5268,
      "##osp": 5269,
      "후에": 5270,
      "pop": 5271,
      "ty": 5272,
      "##일에": 5273,
      "clot": 5274,
      "설명": 5275,
      "deli": 5276,
      "##다가": 5277,
      "sleep": 5278,
      "mod": 5279,
      "##시는": 5280,
      "##ently": 5281,
      "서비": 5282,
      "dri": 5283,
      "dream": 5284,
      "발생": 5285,
      "되나요": 5286,
      "##시에": 5287,
      "told": 5288,
      "##드리겠습니다": 5289,
      "##심히": 5290,
      "##pon": 5291,
      "minutes": 5292,
      "makes": 5293,
      "나오": 5294,
      "result": 5295,
      "##icket": 5296,
      "직접": 5297,
      "##트를": 5298,
      "depart": 5299,
      "dire": 5300,
      "received": 5301,
      "After": 5302,
      "##장이": 5303,
      "account": 5304,
      "##서를": 5305,
      "저에게": 5306,
      "한번": 5307,
      "delivery": 5308,
      "students": 5309,
      "##ix": 5310,
      "##ital": 5311,
      "sol": 5312,
      "pack": 5313,
      "그가": 5314,
      "이곳": 5315,
      "below": 5316,
      "##itional": 5317,
      "같은데": 5318,
      "date": 5319,
      "경험": 5320,
      "##ample": 5321,
      "수도": 5322,
      "shipp": 5323,
      "train": 5324,
      "어려": 5325,
      "##ommend": 5326,
      "mess": 5327,
      "size": 5328,
      "##ash": 5329,
      "##ational": 5330,
      "##ceed": 5331,
      "##ailable": 5332,
      "bring": 5333,
      "done": 5334,
      "fact": 5335,
      "그것을": 5336,
      "시험": 5337,
      "often": 5338,
      "##분이": 5339,
      "quest": 5340,
      "작업": 5341,
      "##line": 5342,
      "##ew": 5343,
      "ticket": 5344,
      "##그램": 5345,
      "complet": 5346,
      "카드": 5347,
      "recommend": 5348,
      "##arent": 5349,
      "##으니": 5350,
      "아니라": 5351,
      "Un": 5352,
      "세계": 5353,
      "될까요": 5354,
      "버스": 5355,
      "##led": 5356,
      "##oon": 5357,
      "amount": 5358,
      "싶은데": 5359,
      "men": 5360,
      "잘못": 5361,
      "syst": 5362,
      "confirm": 5363,
      "later": 5364,
      "##dered": 5365,
      "report": 5366,
      "##가는": 5367,
      "receive": 5368,
      "might": 5369,
      "계약": 5370,
      "##atur": 5371,
      "아닌": 5372,
      "열심히": 5373,
      "미안": 5374,
      "##iet": 5375,
      "partic": 5376,
      "사실": 5377,
      "word": 5378,
      "mail": 5379,
      "않고": 5380,
      "않은": 5381,
      "##ited": 5382,
      "prom": 5383,
      "##셔야": 5384,
      "##oul": 5385,
      "이야기": 5386,
      "children": 5387,
      "##었는데": 5388,
      "flo": 5389,
      "exch": 5390,
      "Where": 5391,
      "##ian": 5392,
      "있는지": 5393,
      "wanted": 5394,
      "having": 5395,
      "pol": 5396,
      "payment": 5397,
      "However": 5398,
      "near": 5399,
      "cr": 5400,
      "건강": 5401,
      "다양한": 5402,
      "available": 5403,
      "wrong": 5404,
      "##인을": 5405,
      "front": 5406,
      "happen": 5407,
      "ent": 5408,
      "11": 5409,
      "mater": 5410,
      "##시오": 5411,
      "##되었습니다": 5412,
      "##iday": 5413,
      "point": 5414,
      "기억": 5415,
      "하면": 5416,
      "아마": 5417,
      "##gram": 5418,
      "gl": 5419,
      "사람들이": 5420,
      "시간을": 5421,
      "gir": 5422,
      "##ost": 5423,
      "current": 5424,
      "prof": 5425,
      "사진을": 5426,
      "##app": 5427,
      "그러면": 5428,
      "##ness": 5429,
      "real": 5430,
      "어느": 5431,
      "회의": 5432,
      "첨부": 5433,
      "직원": 5434,
      "##ages": 5435,
      "nice": 5436,
      "받아": 5437,
      "##려면": 5438,
      "##ative": 5439,
      "##님이": 5440,
      "선물": 5441,
      "bought": 5442,
      "health": 5443,
      "생각합니다": 5444,
      "red": 5445,
      "감사합니다": 5446,
      "sl": 5447,
      "##ense": 5448,
      "Our": 5449,
      "times": 5450,
      "ship": 5451,
      "마지": 5452,
      "유명": 5453,
      "겁니다": 5454,
      "doll": 5455,
      "charge": 5456,
      "##전에": 5457,
      "##aring": 5458,
      "##ister": 5459,
      "contract": 5460,
      "introdu": 5461,
      "second": 5462,
      "인터": 5463,
      "took": 5464,
      "material": 5465,
      "마지막": 5466,
      "##했는데": 5467,
      "enough": 5468,
      "##rence": 5469,
      "sign": 5470,
      "드릴": 5471,
      "오래": 5472,
      "experience": 5473,
      "##iversity": 5474,
      "제일": 5475,
      "May": 5476,
      "found": 5477,
      "ordered": 5478,
      "build": 5479,
      "##식을": 5480,
      "##ention": 5481,
      "한국에": 5482,
      "##ues": 5483,
      "bag": 5484,
      "head": 5485,
      "여기서": 5486,
      "three": 5487,
      "ago": 5488,
      "##어나": 5489,
      "##상을": 5490,
      "own": 5491,
      "있고": 5492,
      "program": 5493,
      "##십시오": 5494,
      "those": 5495,
      "someone": 5496,
      "것으로": 5497,
      "making": 5498,
      "walk": 5499,
      "정확": 5500,
      "expl": 5501,
      "various": 5502,
      "지원": 5503,
      "special": 5504,
      "miss": 5505,
      "reservation": 5506,
      "소개": 5507,
      "tast": 5508,
      "clothes": 5509,
      "##iful": 5510,
      "좋을": 5511,
      "나라": 5512,
      "추천": 5513,
      "intern": 5514,
      "##이가": 5515,
      "form": 5516,
      "okay": 5517,
      "##자를": 5518,
      "stop": 5519,
      "##unch": 5520,
      "hur": 5521,
      "받을": 5522,
      "비행": 5523,
      "있었습니다": 5524,
      "perform": 5525,
      "thank": 5526,
      "game": 5527,
      "system": 5528,
      "드리": 5529,
      "이러": 5530,
      "샘플": 5531,
      "엄마": 5532,
      "##정이": 5533,
      "ass": 5534,
      "##ese": 5535,
      "pain": 5536,
      "포함": 5537,
      "게임": 5538,
      "hair": 5539,
      "##ached": 5540,
      "19": 5541,
      "Would": 5542,
      "early": 5543,
      "##입니까": 5544,
      "emplo": 5545,
      "cance": 5546,
      "young": 5547,
      "##ph": 5548,
      "refund": 5549,
      "course": 5550,
      "##aper": 5551,
      "quick": 5552,
      "station": 5553,
      "Also": 5554,
      "##하려고": 5555,
      "배우": 5556,
      "해결": 5557,
      "few": 5558,
      "궁금": 5559,
      "Your": 5560,
      "floor": 5561,
      "나와": 5562,
      "taking": 5563,
      "관심": 5564,
      "incre": 5565,
      "##지가": 5566,
      "expect": 5567,
      "##avor": 5568,
      "gen": 5569,
      "skin": 5570,
      "##화를": 5571,
      "중에": 5572,
      "앞으로": 5573,
      "side": 5574,
      "그곳": 5575,
      "서류": 5576,
      "turn": 5577,
      "wish": 5578,
      "##land": 5579,
      "din": 5580,
      "beautiful": 5581,
      "서울": 5582,
      "한국에서": 5583,
      "cou": 5584,
      "ser": 5585,
      "clean": 5586,
      "parent": 5587,
      "##았어요": 5588,
      "##라도": 5589,
      "자주": 5590,
      "먹고": 5591,
      "바라": 5592,
      "혼자": 5593,
      "run": 5594,
      "appro": 5595,
      "되었습니다": 5596,
      "##이스": 5597,
      "changed": 5598,
      "##기도": 5599,
      "An": 5600,
      "이건": 5601,
      "##했던": 5602,
      "##ove": 5603,
      "Seoul": 5604,
      "da": 5605,
      "알려주": 5606,
      "stre": 5607,
      "famous": 5608,
      "bir": 5609,
      "##be": 5610,
      "상태": 5611,
      "move": 5612,
      "##che": 5613,
      "post": 5614,
      "mar": 5615,
      "저희는": 5616,
      "On": 5617,
      "취소": 5618,
      "##어야": 5619,
      "coming": 5620,
      "##사가": 5621,
      "detail": 5622,
      "결혼": 5623,
      "서로": 5624,
      "myself": 5625,
      "full": 5626,
      "프로그램": 5627,
      "사람은": 5628,
      "부모": 5629,
      "bro": 5630,
      "##마다": 5631,
      "있다고": 5632,
      "##장에": 5633,
      "누구": 5634,
      "말을": 5635,
      "외국": 5636,
      "가능합니다": 5637,
      "가야": 5638,
      "선생": 5639,
      "##보고": 5640,
      "때문입니다": 5641,
      "saw": 5642,
      "ide": 5643,
      "address": 5644,
      "아름": 5645,
      "##어를": 5646,
      "tour": 5647,
      "당신과": 5648,
      "##ider": 5649,
      "cult": 5650,
      "hum": 5651,
      "##ead": 5652,
      "effect": 5653,
      "수가": 5654,
      "저희가": 5655,
      "##ished": 5656,
      "없이": 5657,
      "##ime": 5658,
      "exchange": 5659,
      "##dition": 5660,
      "저의": 5661,
      "asked": 5662,
      "환불": 5663,
      "이메": 5664,
      "##bs": 5665,
      "looks": 5666,
      "grad": 5667,
      "return": 5668,
      "cut": 5669,
      "중요한": 5670,
      "##ae": 5671,
      "stand": 5672,
      "##ember": 5673,
      "이러한": 5674,
      "cook": 5675,
      "##osed": 5676,
      "그래도": 5677,
      "cent": 5678,
      "돈을": 5679,
      "sing": 5680,
      "##시고": 5681,
      "##장에서": 5682,
      "short": 5683,
      "##uture": 5684,
      "break": 5685,
      "hours": 5686,
      "sum": 5687,
      "타고": 5688,
      "##ger": 5689,
      "cert": 5690,
      "dist": 5691,
      "지하": 5692,
      "tax": 5693,
      "vac": 5694,
      "##이를": 5695,
      "##리에": 5696,
      "foreign": 5697,
      "parents": 5698,
      "prev": 5699,
      "50": 5700,
      "##gan": 5701,
      "exam": 5702,
      "ma": 5703,
      "재미": 5704,
      "ans": 5705,
      "##ution": 5706,
      "##ries": 5707,
      "Have": 5708,
      "##ift": 5709,
      "그러나": 5710,
      "future": 5711,
      "##되었": 5712,
      "업무": 5713,
      "far": 5714,
      "win": 5715,
      "물어": 5716,
      "val": 5717,
      "대학": 5718,
      "있도록": 5719,
      "##ss": 5720,
      "dinner": 5721,
      "##pl": 5722,
      "event": 5723,
      "##일로": 5724,
      "##ina": 5725,
      "el": 5726,
      "가고": 5727,
      "discount": 5728,
      "seat": 5729,
      "cold": 5730,
      "최대": 5731,
      "##가지": 5732,
      "hosp": 5733,
      "music": 5734,
      "생산": 5735,
      "##성을": 5736,
      "생각해요": 5737,
      "heart": 5738,
      "##ote": 5739,
      "past": 5740,
      "support": 5741,
      "개인": 5742,
      "주말": 5743,
      "speak": 5744,
      "##erg": 5745,
      "issue": 5746,
      "말고": 5747,
      "usually": 5748,
      "sw": 5749,
      "오후": 5750,
      "##이터": 5751,
      "##ffee": 5752,
      "##하도록": 5753,
      "노래": 5754,
      "##oc": 5755,
      "##료를": 5756,
      "teac": 5757,
      "죄송합니다": 5758,
      "sales": 5759,
      "##하며": 5760,
      "pret": 5761,
      "##aff": 5762,
      "모습": 5763,
      "everything": 5764,
      "First": 5765,
      "aut": 5766,
      "안에": 5767,
      "lead": 5768,
      "따로": 5769,
      "##되지": 5770,
      "light": 5771,
      "weekend": 5772,
      "알려주세요": 5773,
      "친구가": 5774,
      "##ata": 5775,
      "화장": 5776,
      "그런데": 5777,
      "##ott": 5778,
      "##해도": 5779,
      "flight": 5780,
      "##시다": 5781,
      "##ording": 5782,
      "proceed": 5783,
      "##ple": 5784,
      "##ices": 5785,
      "금액": 5786,
      "##br": 5787,
      "##wer": 5788,
      "##roup": 5789,
      "matter": 5790,
      "birth": 5791,
      "##하였습니다": 5792,
      "enter": 5793,
      "attached": 5794,
      "document": 5795,
      "##이라는": 5796,
      "##less": 5797,
      "though": 5798,
      "##하시면": 5799,
      "예정입니다": 5800,
      "moment": 5801,
      "body": 5802,
      "memor": 5803,
      "project": 5804,
      "전달": 5805,
      "커피": 5806,
      "both": 5807,
      "사람들은": 5808,
      "favor": 5809,
      "음식을": 5810,
      "행동": 5811,
      "condition": 5812,
      "##icy": 5813,
      "coffee": 5814,
      "apply": 5815,
      "photo": 5816,
      "charact": 5817,
      "보내주": 5818,
      "##ret": 5819,
      "이번에": 5820,
      "사항": 5821,
      "##이크": 5822,
      "respon": 5823,
      "서비스": 5824,
      "situation": 5825,
      "디자인": 5826,
      "face": 5827,
      "적이": 5828,
      "가게": 5829,
      "##머니": 5830,
      "Today": 5831,
      "pub": 5832,
      "##일이": 5833,
      "그림": 5834,
      "ori": 5835,
      "의미": 5836,
      "##소를": 5837,
      "thinking": 5838,
      "particip": 5839,
      "먹을": 5840,
      "##력을": 5841,
      "피부": 5842,
      "##ched": 5843,
      "##here": 5844,
      "vide": 5845,
      "매일": 5846,
      "##드는": 5847,
      "started": 5848,
      "employe": 5849,
      "hospital": 5850,
      "##side": 5851,
      "grow": 5852,
      "expens": 5853,
      "Be": 5854,
      "pick": 5855,
      "##tern": 5856,
      "공항": 5857,
      "되고": 5858,
      "teacher": 5859,
      "수정": 5860,
      "##중에": 5861,
      "기회": 5862,
      "얘기": 5863,
      "특별": 5864,
      "##품을": 5865,
      "impro": 5866,
      "왜냐": 5867,
      "isn": 5868,
      "lu": 5869,
      "haven": 5870,
      "popular": 5871,
      "customer": 5872,
      "group": 5873,
      "reply": 5874,
      "believe": 5875,
      "##work": 5876,
      "여행을": 5877,
      "customers": 5878,
      "Since": 5879,
      "##par": 5880,
      "##ination": 5881,
      "express": 5882,
      "top": 5883,
      "fil": 5884,
      "direct": 5885,
      "사업": 5886,
      "##자는": 5887,
      "park": 5888,
      "purchase": 5889,
      "신청": 5890,
      "되었": 5891,
      "items": 5892,
      "contin": 5893,
      "wonder": 5894,
      "listen": 5895,
      "busy": 5896,
      "beh": 5897,
      "model": 5898,
      "department": 5899,
      "attend": 5900,
      "less": 5901,
      "write": 5902,
      "comput": 5903,
      "##ien": 5904,
      "거에요": 5905,
      "##den": 5906,
      "boy": 5907,
      "컴퓨": 5908,
      "data": 5909,
      "file": 5910,
      "##chn": 5911,
      "fee": 5912,
      "occ": 5913,
      "##imes": 5914,
      "해당": 5915,
      "mid": 5916,
      "번호": 5917,
      "사회": 5918,
      "##드릴게요": 5919,
      "지역": 5920,
      "음악": 5921,
      "활동": 5922,
      "##raw": 5923,
      "takes": 5924,
      "컴퓨터": 5925,
      "것도": 5926,
      "그건": 5927,
      "연구": 5928,
      "item": 5929,
      "finish": 5930,
      "##oss": 5931,
      "해주": 5932,
      "이유는": 5933,
      "commun": 5934,
      "##겠다": 5935,
      "##성이": 5936,
      "##ised": 5937,
      "regard": 5938,
      "student": 5939,
      "교육": 5940,
      "##iting": 5941,
      "message": 5942,
      "ap": 5943,
      "##적이": 5944,
      "문의": 5945,
      "개발": 5946,
      "##fect": 5947,
      "trying": 5948,
      "separ": 5949,
      "##가를": 5950,
      "##원이": 5951,
      "##ric": 5952,
      "oper": 5953,
      "airport": 5954,
      "line": 5955,
      "돼요": 5956,
      "Ex": 5957,
      "Kim": 5958,
      "##겠습니까": 5959,
      "집에서": 5960,
      "##워요": 5961,
      "##itive": 5962,
      "quickly": 5963,
      "##aces": 5964,
      "planning": 5965,
      "우선": 5966,
      "##력이": 5967,
      "bor": 5968,
      "자동": 5969,
      "##수를": 5970,
      "eff": 5971,
      "gave": 5972,
      "##ons": 5973,
      "##rib": 5974,
      "alone": 5975,
      "제품은": 5976,
      "인터넷": 5977,
      "이후": 5978,
      "close": 5979,
      "##스러": 5980,
      "완료": 5981,
      "최근": 5982,
      "box": 5983,
      "부족": 5984,
      "bank": 5985,
      "lar": 5986,
      "others": 5987,
      "tired": 5988,
      "있다면": 5989,
      "너희": 5990,
      "##rect": 5991,
      "없을": 5992,
      "##ered": 5993,
      "comes": 5994,
      "메뉴": 5995,
      "체크": 5996,
      "##사의": 5997,
      "consider": 5998,
      "##reen": 5999,
      "giv": 6000,
      "근처": 6001,
      "기술": 6002,
      "작은": 6003,
      "Amer": 6004,
      "##원에": 6005,
      "Mon": 6006,
      "est": 6007,
      "기대": 6008,
      "약속": 6009,
      "##님께": 6010,
      "사이즈": 6011,
      "exc": 6012,
      "whether": 6013,
      "작성": 6014,
      "지하철": 6015,
      "lunch": 6016,
      "##az": 6017,
      "sample": 6018,
      "보냈": 6019,
      "영향": 6020,
      "##치를": 6021,
      "일찍": 6022,
      "##by": 6023,
      "These": 6024,
      "Americ": 6025,
      "##하다고": 6026,
      "##부분": 6027,
      "##지고": 6028,
      "맛있": 6029,
      "subway": 6030,
      "pictures": 6031,
      "arrive": 6032,
      "Now": 6033,
      "living": 6034,
      "related": 6035,
      "원하는": 6036,
      "##erc": 6037,
      "within": 6038,
      "들어가": 6039,
      "종류": 6040,
      "떨어": 6041,
      "필요합니다": 6042,
      "TV": 6043,
      "사고": 6044,
      "가면": 6045,
      "prepare": 6046,
      "##ef": 6047,
      "##하실": 6048,
      "##angu": 6049,
      "이루": 6050,
      "##elt": 6051,
      "최고": 6052,
      "gift": 6053,
      "##oose": 6054,
      "무엇을": 6055,
      "저도": 6056,
      "shop": 6057,
      "한국의": 6058,
      "checked": 6059,
      "##물을": 6060,
      "기다려": 6061,
      "##했어": 6062,
      "sending": 6063,
      "지나": 6064,
      "생활": 6065,
      "있게": 6066,
      "##지도": 6067,
      "gener": 6068,
      "##거든": 6069,
      "mother": 6070,
      "##ug": 6071,
      "ever": 6072,
      "계산": 6073,
      "어렵": 6074,
      "##duc": 6075,
      "origin": 6076,
      "##되고": 6077,
      "manag": 6078,
      "##금을": 6079,
      "All": 6080,
      "##ides": 6081,
      "hurt": 6082,
      "##ugh": 6083,
      "area": 6084,
      "그녀의": 6085,
      "도움이": 6086,
      "colle": 6087,
      "vacation": 6088,
      "song": 6089,
      "발표": 6090,
      "##icious": 6091,
      "ey": 6092,
      "가까": 6093,
      "결정": 6094,
      "opp": 6095,
      "기능": 6096,
      "여름": 6097,
      "##ration": 6098,
      "kid": 6099,
      "easy": 6100,
      "among": 6101,
      "적용": 6102,
      "##ju": 6103,
      "bas": 6104,
      "기간": 6105,
      "maj": 6106,
      "##aid": 6107,
      "techn": 6108,
      "fine": 6109,
      "발송": 6110,
      "Does": 6111,
      "##fortable": 6112,
      "Every": 6113,
      "explain": 6114,
      "충분": 6115,
      "가방": 6116,
      "처리": 6117,
      "죄송하지만": 6118,
      "너에게": 6119,
      "책을": 6120,
      "##신가요": 6121,
      "lost": 6122,
      "answer": 6123,
      "미리": 6124,
      "할인": 6125,
      "##reci": 6126,
      "아름다": 6127,
      "##드를": 6128,
      "때는": 6129,
      "식당": 6130,
      "자기": 6131,
      "became": 6132,
      "여러분": 6133,
      "term": 6134,
      "끝나": 6135,
      "Ye": 6136,
      "불가": 6137,
      "##사는": 6138,
      "##닙니다": 6139,
      "pretty": 6140,
      "점심": 6141,
      "langu": 6142,
      "shipping": 6143,
      "왜냐하면": 6144,
      "city": 6145,
      "우리에게": 6146,
      "summer": 6147,
      "##전히": 6148,
      "China": 6149,
      "제작": 6150,
      "##ably": 6151,
      "##스템": 6152,
      "##ior": 6153,
      "확인해": 6154,
      "핸드": 6155,
      "##동안": 6156,
      "bed": 6157,
      "##잖아": 6158,
      "##vers": 6159,
      "##제를": 6160,
      "culture": 6161,
      "않았습니다": 6162,
      "waiting": 6163,
      "cell": 6164,
      "테니": 6165,
      "felt": 6166,
      "영어를": 6167,
      "studying": 6168,
      "답변": 6169,
      "담당": 6170,
      "strong": 6171,
      "ob": 6172,
      "때문이에요": 6173,
      "##하면서": 6174,
      "Even": 6175,
      "nothing": 6176,
      "##들도": 6177,
      "안내": 6178,
      "표현": 6179,
      "##어가": 6180,
      "appreci": 6181,
      "building": 6182,
      "instead": 6183,
      "있지": 6184,
      "지내": 6185,
      "##ety": 6186,
      "hol": 6187,
      "성공": 6188,
      "대신": 6189,
      "party": 6190,
      "자세": 6191,
      "일정": 6192,
      "##room": 6193,
      "##ames": 6194,
      "exerc": 6195,
      "birthday": 6196,
      "좋아요": 6197,
      "based": 6198,
      "효과": 6199,
      "그때": 6200,
      "포장": 6201,
      "memb": 6202,
      "transfer": 6203,
      "introduce": 6204,
      "women": 6205,
      "##던데": 6206,
      "##번호": 6207,
      "##래요": 6208,
      "##ctions": 6209,
      "##ah": 6210,
      "applic": 6211,
      "참여": 6212,
      "##하셨": 6213,
      "tot": 6214,
      "forward": 6215,
      "members": 6216,
      "video": 6217,
      "너를": 6218,
      "##ients": 6219,
      "letter": 6220,
      "메시": 6221,
      "해외": 6222,
      "##oint": 6223,
      "chance": 6224,
      "그녀가": 6225,
      "했는데": 6226,
      "sound": 6227,
      "문화": 6228,
      "story": 6229,
      "Monday": 6230,
      "불편": 6231,
      "##려요": 6232,
      "##mber": 6233,
      "날씨": 6234,
      "와서": 6235,
      "##ically": 6236,
      "provide": 6237,
      "relations": 6238,
      "보이": 6239,
      "##right": 6240,
      "pract": 6241,
      "spec": 6242,
      "problems": 6243,
      "##도를": 6244,
      "##라서": 6245,
      "##선을": 6246,
      "##ants": 6247,
      "##dle": 6248,
      "##urs": 6249,
      "else": 6250,
      "스타": 6251,
      "activ": 6252,
      "##iod": 6253,
      "그들이": 6254,
      "운전": 6255,
      "즐거": 6256,
      "##어도": 6257,
      "##pping": 6258,
      "performance": 6259,
      "##pr": 6260,
      "거래": 6261,
      "먹는": 6262,
      "보면": 6263,
      "wear": 6264,
      "works": 6265,
      "env": 6266,
      "프로젝": 6267,
      "words": 6268,
      "educ": 6269,
      "거의": 6270,
      "computer": 6271,
      "##cture": 6272,
      "Mr": 6273,
      "##치는": 6274,
      "##친구": 6275,
      "사람을": 6276,
      "ann": 6277,
      "200": 6278,
      "##tain": 6279,
      "##겠네요": 6280,
      "equ": 6281,
      "delicious": 6282,
      "temp": 6283,
      "woman": 6284,
      "것에": 6285,
      "나가": 6286,
      "##lied": 6287,
      "Which": 6288,
      "character": 6289,
      "pat": 6290,
      "profess": 6291,
      "organ": 6292,
      "eating": 6293,
      "talking": 6294,
      "##하시는": 6295,
      "광고": 6296,
      "잠시": 6297,
      "##outh": 6298,
      "좋겠어요": 6299,
      "##레이": 6300,
      "remember": 6301,
      "시스템": 6302,
      "없어서": 6303,
      "additional": 6304,
      "mist": 6305,
      "얼굴": 6306,
      "allow": 6307,
      "tried": 6308,
      "##ike": 6309,
      "review": 6310,
      "유명한": 6311,
      "pri": 6312,
      "장소": 6313,
      "##줍니다": 6314,
      "받고": 6315,
      "지금은": 6316,
      "inside": 6317,
      "정보를": 6318,
      "tre": 6319,
      "##었던": 6320,
      "interested": 6321,
      "period": 6322,
      "안전": 6323,
      "months": 6324,
      "eyes": 6325,
      "항공": 6326,
      "seem": 6327,
      "사용할": 6328,
      "있다는": 6329,
      "##orts": 6330,
      "spend": 6331,
      "##장은": 6332,
      "decided": 6333,
      "아닙니다": 6334,
      "saying": 6335,
      "cap": 6336,
      "def": 6337,
      "news": 6338,
      "rain": 6339,
      "##more": 6340,
      "transl": 6341,
      "correct": 6342,
      "Ph": 6343,
      "되면": 6344,
      "##릅니다": 6345,
      "##inese": 6346,
      "거기": 6347,
      "##상이": 6348,
      "핸드폰": 6349,
      "마세요": 6350,
      "##자의": 6351,
      "seen": 6352,
      "다녀": 6353,
      "생각해": 6354,
      "교환": 6355,
      "어린": 6356,
      "##리스": 6357,
      "everyone": 6358,
      "##ned": 6359,
      "##르게": 6360,
      "##uss": 6361,
      "Chinese": 6362,
      "##hod": 6363,
      "##으며": 6364,
      "opin": 6365,
      "관계": 6366,
      "좋습니다": 6367,
      "Japanese": 6368,
      "Okay": 6369,
      "더욱": 6370,
      "모델": 6371,
      "##cle": 6372,
      "##ling": 6373,
      "weather": 6374,
      "means": 6375,
      "ele": 6376,
      "목표": 6377,
      "어때": 6378,
      "meal": 6379,
      "dog": 6380,
      "hear": 6381,
      "dollars": 6382,
      "inf": 6383,
      "text": 6384,
      "제품이": 6385,
      "##uce": 6386,
      "worried": 6387,
      "##arch": 6388,
      "다니": 6389,
      "인해": 6390,
      "trad": 6391,
      "Friday": 6392,
      "outside": 6393,
      "university": 6394,
      "##ases": 6395,
      "##ird": 6396,
      "lik": 6397,
      "Je": 6398,
      "paper": 6399,
      "진짜": 6400,
      "관리": 6401,
      "나중에": 6402,
      "대부분": 6403,
      "질문": 6404,
      "##렸습니다": 6405,
      "exact": 6406,
      "idea": 6407,
      "method": 6408,
      "major": 6409,
      "선적": 6410,
      "favorite": 6411,
      "sister": 6412,
      "보는": 6413,
      "저번": 6414,
      "##졌습니다": 6415,
      "##랜드": 6416,
      "brother": 6417,
      "girl": 6418,
      "public": 6419,
      "보통": 6420,
      "주에": 6421,
      "compet": 6422,
      "taste": 6423,
      "##vert": 6424,
      "requested": 6425,
      "##ator": 6426,
      "mach": 6427,
      "되지": 6428,
      "수량": 6429,
      "##집니다": 6430,
      "##점을": 6431,
      "이것을": 6432,
      "주변": 6433,
      "##ield": 6434,
      "그들의": 6435,
      "install": 6436,
      "treat": 6437,
      "New": 6438,
      "##used": 6439,
      "##cheon": 6440,
      "연결": 6441,
      "제출": 6442,
      "const": 6443,
      "invoice": 6444,
      "드리겠습니다": 6445,
      "받았": 6446,
      "ra": 6447,
      "tou": 6448,
      "quality": 6449,
      "일단": 6450,
      "##자기": 6451,
      "##사에": 6452,
      "##ology": 6453,
      "cre": 6454,
      "최대한": 6455,
      "은행": 6456,
      "전문": 6457,
      "##밖에": 6458,
      "일주": 6459,
      "easily": 6460,
      "compan": 6461,
      "그렇다면": 6462,
      "##ccess": 6463,
      "영화를": 6464,
      "following": 6465,
      "vie": 6466,
      "##ai": 6467,
      "##ee": 6468,
      "##므로": 6469,
      "##ush": 6470,
      "날짜": 6471,
      "자신의": 6472,
      "center": 6473,
      "paid": 6474,
      "요리": 6475,
      "type": 6476,
      "##con": 6477,
      "##수가": 6478,
      "있으니": 6479,
      "##이랑": 6480,
      "sold": 6481,
      "18": 6482,
      "40": 6483,
      "power": 6484,
      "주는": 6485,
      "##ision": 6486,
      "fast": 6487,
      "하기": 6488,
      "subm": 6489,
      "cred": 6490,
      "사는": 6491,
      "##co": 6492,
      "relationship": 6493,
      "스트": 6494,
      "##ilar": 6495,
      "25": 6496,
      "##원을": 6497,
      "##ism": 6498,
      "hold": 6499,
      "고마": 6500,
      "##에서도": 6501,
      "At": 6502,
      "의견": 6503,
      "테스트": 6504,
      "ready": 6505,
      "worry": 6506,
      "선생님": 6507,
      "choose": 6508,
      "contro": 6509,
      "지불": 6510,
      "##스럽": 6511,
      "table": 6512,
      "##ency": 6513,
      "##ify": 6514,
      "##llo": 6515,
      "complete": 6516,
      "Pe": 6517,
      "직업": 6518,
      "manage": 6519,
      "menu": 6520,
      "아파": 6521,
      "인생": 6522,
      "questions": 6523,
      "fall": 6524,
      "내려": 6525,
      "설치": 6526,
      "##한다면": 6527,
      "##ined": 6528,
      "needs": 6529,
      "view": 6530,
      "##할게요": 6531,
      "##otion": 6532,
      "도시": 6533,
      "##이기": 6534,
      "##주는": 6535,
      "stock": 6536,
      "##ills": 6537,
      "leg": 6538,
      "아니면": 6539,
      "books": 6540,
      "low": 6541,
      "rice": 6542,
      "등록": 6543,
      "arrived": 6544,
      "communic": 6545,
      "또는": 6546,
      "친구들과": 6547,
      "##었다": 6548,
      "일반": 6549,
      "human": 6550,
      "begin": 6551,
      "##트에": 6552,
      "true": 6553,
      "quite": 6554,
      "##가가": 6555,
      "##ists": 6556,
      "level": 6557,
      "##보세요": 6558,
      "delay": 6559,
      "##iron": 6560,
      "success": 6561,
      "watching": 6562,
      "전체": 6563,
      "참고": 6564,
      "##ium": 6565,
      "##ising": 6566,
      "sea": 6567,
      "자연": 6568,
      "advance": 6569,
      "##eng": 6570,
      "##하나요": 6571,
      "##증을": 6572,
      "swe": 6573,
      "##달러": 6574,
      "cancel": 6575,
      "father": 6576,
      "저를": 6577,
      "책임": 6578,
      "necess": 6579,
      "##서는": 6580,
      "##alf": 6581,
      "similar": 6582,
      "살아": 6583,
      "어디에": 6584,
      "느끼": 6585,
      "위험": 6586,
      "##스로": 6587,
      "production": 6588,
      "오랜": 6589,
      "##com": 6590,
      "goes": 6591,
      "관광": 6592,
      "yourself": 6593,
      "##ization": 6594,
      "fre": 6595,
      "warm": 6596,
      "공연": 6597,
      "확실": 6598,
      "quant": 6599,
      "##다니": 6600,
      "##감을": 6601,
      "season": 6602,
      "discuss": 6603,
      "물건을": 6604,
      "US": 6605,
      "##yle": 6606,
      "imm": 6607,
      "기분이": 6608,
      "인간": 6609,
      "share": 6610,
      "conven": 6611,
      "##aken": 6612,
      "엄청": 6613,
      "졸업": 6614,
      "##ival": 6615,
      "사무": 6616,
      "환경": 6617,
      "##등학교": 6618,
      "according": 6619,
      "##ivered": 6620,
      "일어나": 6621,
      "물론": 6622,
      "업체": 6623,
      "##스는": 6624,
      "clear": 6625,
      "appreciate": 6626,
      "companies": 6627,
      "24": 6628,
      "겨울": 6629,
      "##sib": 6630,
      "black": 6631,
      "##ughter": 6632,
      "##amer": 6633,
      "드라": 6634,
      "##점이": 6635,
      "##ouble": 6636,
      "rele": 6637,
      "One": 6638,
      "번역": 6639,
      "굉장": 6640,
      "대로": 6641,
      "##te": 6642,
      "##most": 6643,
      "lots": 6644,
      "##load": 6645,
      "expensive": 6646,
      "검토": 6647,
      "##라인": 6648,
      "##ife": 6649,
      "currently": 6650,
      "주소": 6651,
      "resear": 6652,
      "accept": 6653,
      "안녕": 6654,
      "##fact": 6655,
      "그것이": 6656,
      "language": 6657,
      "Re": 6658,
      "그게": 6659,
      "environ": 6660,
      "##ape": 6661,
      "delivered": 6662,
      "존재": 6663,
      "##년에": 6664,
      "sat": 6665,
      "wind": 6666,
      "##워서": 6667,
      "fix": 6668,
      "##aster": 6669,
      "aw": 6670,
      "##io": 6671,
      "##시아": 6672,
      "##리지": 6673,
      "Of": 6674,
      "##ored": 6675,
      "medic": 6676,
      "올라": 6677,
      "##했을": 6678,
      "finished": 6679,
      "학교에": 6680,
      "느낌": 6681,
      "요구": 6682,
      "cal": 6683,
      "##ification": 6684,
      "별로": 6685,
      "어떠": 6686,
      "##sel": 6687,
      "##구나": 6688,
      "prop": 6689,
      "documents": 6690,
      "살고": 6691,
      "인천": 6692,
      "있었어요": 6693,
      "anim": 6694,
      "##하는데": 6695,
      "있기": 6696,
      "택시": 6697,
      "##는데요": 6698,
      "##aturday": 6699,
      "Saturday": 6700,
      "##cing": 6701,
      "##스가": 6702,
      "500": 6703,
      "press": 6704,
      "contain": 6705,
      "question": 6706,
      "옷을": 6707,
      "청소": 6708,
      "##book": 6709,
      "agree": 6710,
      "says": 6711,
      "나한테": 6712,
      "운영": 6713,
      "difference": 6714,
      "credit": 6715,
      "##rap": 6716,
      "People": 6717,
      "applied": 6718,
      "total": 6719,
      "mil": 6720,
      "norm": 6721,
      "보니": 6722,
      "쉽게": 6723,
      "##ctor": 6724,
      "least": 6725,
      "middle": 6726,
      "기업": 6727,
      "원래": 6728,
      "출발": 6729,
      "##icken": 6730,
      "##hib": 6731,
      "수업을": 6732,
      "드립니다": 6733,
      "만든": 6734,
      "나서": 6735,
      "##ept": 6736,
      "관한": 6737,
      "##ully": 6738,
      "fill": 6739,
      "갑자기": 6740,
      "유지": 6741,
      "guess": 6742,
      "countries": 6743,
      "나타": 6744,
      "생각이": 6745,
      "hist": 6746,
      "lim": 6747,
      "vol": 6748,
      "##ring": 6749,
      "large": 6750,
      "dam": 6751,
      "가르": 6752,
      "##하였": 6753,
      "오는": 6754,
      "제안": 6755,
      "##night": 6756,
      "whole": 6757,
      "winter": 6758,
      "받은": 6759,
      "##이어": 6760,
      "gets": 6761,
      "anymore": 6762,
      "camer": 6763,
      "건물": 6764,
      "##ones": 6765,
      "cat": 6766,
      "기본": 6767,
      "webs": 6768,
      "places": 6769,
      "##ale": 6770,
      "##pri": 6771,
      "deliver": 6772,
      "development": 6773,
      "곳이": 6774,
      "##though": 6775,
      "##ified": 6776,
      "Incheon": 6777,
      "해도": 6778,
      "law": 6779,
      "자유": 6780,
      "sever": 6781,
      "가능한가요": 6782,
      "environment": 6783,
      "무료": 6784,
      "자료": 6785,
      "##irt": 6786,
      "##nect": 6787,
      "##식이": 6788,
      "goods": 6789,
      "보낼": 6790,
      "텐데": 6791,
      "부모님": 6792,
      "중입니다": 6793,
      "##로부터": 6794,
      "##where": 6795,
      "##ask": 6796,
      "재미있": 6797,
      "##시나요": 6798,
      "카페": 6799,
      "happened": 6800,
      "Sund": 6801,
      "field": 6802,
      "##주의": 6803,
      "offer": 6804,
      "sad": 6805,
      "비슷": 6806,
      "##ets": 6807,
      "social": 6808,
      "rate": 6809,
      "deal": 6810,
      "becom": 6811,
      "올해": 6812,
      "피곤": 6813,
      "##itten": 6814,
      "final": 6815,
      "prepared": 6816,
      "공간": 6817,
      "늦게": 6818,
      "아버": 6819,
      "##iqu": 6820,
      "##리핀": 6821,
      "brand": 6822,
      "Thanks": 6823,
      "미래": 6824,
      "위에": 6825,
      "카메": 6826,
      "##로는": 6827,
      "rather": 6828,
      "extra": 6829,
      "말해": 6830,
      "##한다고": 6831,
      "club": 6832,
      "##asure": 6833,
      "improve": 6834,
      "##인은": 6835,
      "여기에": 6836,
      "##실에": 6837,
      "Chr": 6838,
      "전혀": 6839,
      "지급": 6840,
      "파티": 6841,
      "personal": 6842,
      "마음에": 6843,
      "높은": 6844,
      "정리": 6845,
      "##lier": 6846,
      "interview": 6847,
      "regarding": 6848,
      "불가능": 6849,
      "##ross": 6850,
      "needed": 6851,
      "받았습니다": 6852,
      "Who": 6853,
      "bab": 6854,
      "##iven": 6855,
      "worked": 6856,
      "invest": 6857,
      "es": 6858,
      "예상": 6859,
      "왔습니다": 6860,
      "이거": 6861,
      "##dden": 6862,
      "wasn": 6863,
      "휴대": 6864,
      "sudden": 6865,
      "image": 6866,
      "manager": 6867,
      "나왔": 6868,
      "필리핀": 6869,
      "##nam": 6870,
      "almost": 6871,
      "##이라서": 6872,
      "스케": 6873,
      "식사": 6874,
      "hands": 6875,
      "Will": 6876,
      "draw": 6877,
      "##하니": 6878,
      "가격이": 6879,
      "shopping": 6880,
      "materials": 6881,
      "daughter": 6882,
      "누군": 6883,
      "실제": 6884,
      "##val": 6885,
      "##ipt": 6886,
      "##cially": 6887,
      "##이션": 6888,
      "시간에": 6889,
      "several": 6890,
      "누가": 6891,
      "playing": 6892,
      "##차를": 6893,
      "##ortun": 6894,
      "굉장히": 6895,
      "##friend": 6896,
      "feeling": 6897,
      "공부를": 6898,
      "shipment": 6899,
      "depend": 6900,
      "photos": 6901,
      "Am": 6902,
      "만날": 6903,
      "recently": 6904,
      "받으": 6905,
      "##ute": 6906,
      "Hello": 6907,
      "online": 6908,
      "machine": 6909,
      "natur": 6910,
      "일은": 6911,
      "##겠지만": 6912,
      "##았어": 6913,
      "##도가": 6914,
      "영향을": 6915,
      "쇼핑": 6916,
      "##분에": 6917,
      "##스크": 6918,
      "기존": 6919,
      "제품의": 6920,
      "##ggest": 6921,
      "dut": 6922,
      "##ror": 6923,
      "##리아": 6924,
      "receipt": 6925,
      "마음을": 6926,
      "교수": 6927,
      "위치": 6928,
      "adm": 6929,
      "맛있는": 6930,
      "##이며": 6931,
      "##omp": 6932,
      "chicken": 6933,
      "마케": 6934,
      "여성": 6935,
      "##려서": 6936,
      "##음을": 6937,
      "ste": 6938,
      "##해주시": 6939,
      "##거든요": 6940,
      "blo": 6941,
      "##fully": 6942,
      "문제를": 6943,
      "quantity": 6944,
      "elect": 6945,
      "전부": 6946,
      "along": 6947,
      "특히": 6948,
      "##함을": 6949,
      "suggest": 6950,
      "있지만": 6951,
      "##got": 6952,
      "offic": 6953,
      "##ns": 6954,
      "##지에": 6955,
      "Bus": 6956,
      "##일은": 6957,
      "typ": 6958,
      "남아": 6959,
      "##noon": 6960,
      "forget": 6961,
      "방법을": 6962,
      "satis": 6963,
      "fish": 6964,
      "마음이": 6965,
      "앞에": 6966,
      "##ming": 6967,
      "##unt": 6968,
      "afternoon": 6969,
      "boyfriend": 6970,
      "education": 6971,
      "싫어": 6972,
      "##ference": 6973,
      "Phil": 6974,
      "ce": 6975,
      "safe": 6976,
      "##amples": 6977,
      "website": 6978,
      "어울": 6979,
      "##쪽으로": 6980,
      "##band": 6981,
      "##개월": 6982,
      "advert": 6983,
      "아침에": 6984,
      "없나요": 6985,
      "생각을": 6986,
      "어디서": 6987,
      "Some": 6988,
      "대화": 6989,
      "대표": 6990,
      "이동": 6991,
      "##개의": 6992,
      "##ins": 6993,
      "scen": 6994,
      "다음에": 6995,
      "site": 6996,
      "한다고": 6997,
      "회사에": 6998,
      "parts": 6999,
      "foc": 7000,
      "도움을": 7001,
      "previous": 7002,
      "necessary": 7003,
      "말이": 7004,
      "experien": 7005,
      "그를": 7006,
      "영업": 7007,
      "집중": 7008,
      "우리나": 7009,
      "13": 7010,
      "above": 7011,
      "wants": 7012,
      "Intern": 7013,
      "000원": 7014,
      "fac": 7015,
      "##들에": 7016,
      "space": 7017,
      "Therefore": 7018,
      "presentation": 7019,
      "스트레": 7020,
      "옆에": 7021,
      "재고": 7022,
      "touch": 7023,
      "따뜻": 7024,
      "staff": 7025,
      "connect": 7026,
      "prot": 7027,
      "sometimes": 7028,
      "##phone": 7029,
      "pie": 7030,
      "회사에서": 7031,
      "bott": 7032,
      "id": 7033,
      "신경": 7034,
      "드릴게요": 7035,
      "고민": 7036,
      "##asing": 7037,
      "regist": 7038,
      "learned": 7039,
      "expected": 7040,
      "exercise": 7041,
      "snow": 7042,
      "##ron": 7043,
      "prob": 7044,
      "기계": 7045,
      "##든지": 7046,
      "##ivid": 7047,
      "기준": 7048,
      "function": 7049,
      "Sunday": 7050,
      "##vies": 7051,
      "이야기를": 7052,
      "completed": 7053,
      "glad": 7054,
      "##장님": 7055,
      "client": 7056,
      "좋지": 7057,
      "##tle": 7058,
      "##비를": 7059,
      "##ume": 7060,
      "동물": 7061,
      "만족": 7062,
      "##ances": 7063,
      "checking": 7064,
      "Christ": 7065,
      "발전": 7066,
      "상관": 7067,
      "##했고": 7068,
      "주실": 7069,
      "sem": 7070,
      "간단": 7071,
      "공유": 7072,
      "##트가": 7073,
      "dev": 7074,
      "taxi": 7075,
      "다행": 7076,
      "많아서": 7077,
      "바꿔": 7078,
      "##ding": 7079,
      "ones": 7080,
      "ach": 7081,
      "bar": 7082,
      "좋겠어": 7083,
      "찾고": 7084,
      "interesting": 7085,
      "Yeah": 7086,
      "변화": 7087,
      "state": 7088,
      "application": 7089,
      "white": 7090,
      "anyone": 7091,
      "camera": 7092,
      "longer": 7093,
      "af": 7094,
      "##ressed": 7095,
      "written": 7096,
      "보낸": 7097,
      "성격": 7098,
      "weight": 7099,
      "writing": 7100,
      "shoes": 7101,
      "전통": 7102,
      "차를": 7103,
      "##ral": 7104,
      "##어버": 7105,
      "##oun": 7106,
      "rent": 7107,
      "맞는": 7108,
      "##지지": 7109,
      "half": 7110,
      "##르는": 7111,
      "four": 7112,
      "거로": 7113,
      "일어": 7114,
      "##셔도": 7115,
      "held": 7116,
      "따라서": 7117,
      "그만": 7118,
      "지금까지": 7119,
      "refer": 7120,
      "출장": 7121,
      "##점은": 7122,
      "##usband": 7123,
      "proper": 7124,
      "회사의": 7125,
      "college": 7126,
      "##conom": 7127,
      "마케팅": 7128,
      "Sorry": 7129,
      "##time": 7130,
      "lives": 7131,
      "appear": 7132,
      "필요해요": 7133,
      "##하러": 7134,
      "dem": 7135,
      "movies": 7136,
      "제대로": 7137,
      "##으세요": 7138,
      "메일을": 7139,
      "빠른": 7140,
      "goal": 7141,
      "##raid": 7142,
      "카메라": 7143,
      "afraid": 7144,
      "##oke": 7145,
      "weeks": 7146,
      "research": 7147,
      "er": 7148,
      "꿈을": 7149,
      "##vern": 7150,
      "self": 7151,
      "생겼": 7152,
      "아프": 7153,
      "주고": 7154,
      "16": 7155,
      "가끔": 7156,
      "opinion": 7157,
      "좋아합니다": 7158,
      "key": 7159,
      "내용을": 7160,
      "age": 7161,
      "국가": 7162,
      "않아서": 7163,
      "제게": 7164,
      "##라면": 7165,
      "clock": 7166,
      "disapp": 7167,
      "gre": 7168,
      "pen": 7169,
      "데이터": 7170,
      "머리": 7171,
      "입니다": 7172,
      "##go": 7173,
      "##으니까": 7174,
      "좋아해요": 7175,
      "이루어": 7176,
      "medicine": 7177,
      "husband": 7178,
      "##ball": 7179,
      "exist": 7180,
      "##lfriend": 7181,
      "소비": 7182,
      "grand": 7183,
      "control": 7184,
      "만드는": 7185,
      "영수": 7186,
      "##ables": 7187,
      "shows": 7188,
      "벌써": 7189,
      "작품": 7190,
      "연락을": 7191,
      "girlfriend": 7192,
      "##uck": 7193,
      "이것이": 7194,
      "Philipp": 7195,
      "Ind": 7196,
      "##월에": 7197,
      "##보다는": 7198,
      "친구와": 7199,
      "original": 7200,
      "왔어요": 7201,
      "earlier": 7202,
      "안녕하세요": 7203,
      "대학교": 7204,
      "입고": 7205,
      "holiday": 7206,
      "dish": 7207,
      "pot": 7208,
      "accident": 7209,
      "sn": 7210,
      "미팅": 7211,
      "##져서": 7212,
      "kinds": 7213,
      "##uro": 7214,
      "##ump": 7215,
      "taken": 7216,
      "##body": 7217,
      "marketing": 7218,
      "참석": 7219,
      "크게": 7220,
      "##road": 7221,
      "upd": 7222,
      "특별한": 7223,
      "구성": 7224,
      "나온": 7225,
      "##uff": 7226,
      "##없이": 7227,
      "##금이": 7228,
      "##ering": 7229,
      "사용하는": 7230,
      "수영": 7231,
      "조건": 7232,
      "##도로": 7233,
      "##resh": 7234,
      "perfect": 7235,
      "employees": 7236,
      "##구를": 7237,
      "##ither": 7238,
      "##old": 7239,
      "##트는": 7240,
      "##더라고": 7241,
      "smart": 7242,
      "##ption": 7243,
      "##sibility": 7244,
      "cop": 7245,
      "손님": 7246,
      "##ued": 7247,
      "등을": 7248,
      "anal": 7249,
      "evening": 7250,
      "points": 7251,
      "많아": 7252,
      "positive": 7253,
      "만큼": 7254,
      "않으면": 7255,
      "##estival": 7256,
      "specific": 7257,
      "Sure": 7258,
      "via": 7259,
      "발견": 7260,
      "분명": 7261,
      "##한데": 7262,
      "##시키": 7263,
      "않았어요": 7264,
      "increase": 7265,
      "주로": 7266,
      "##gest": 7267,
      "eng": 7268,
      "reading": 7269,
      "details": 7270,
      "ur": 7271,
      "견적": 7272,
      "해주세요": 7273,
      "느껴": 7274,
      "바꾸": 7275,
      "##렸어요": 7276,
      "hig": 7277,
      "son": 7278,
      "아니야": 7279,
      "teach": 7280,
      "kids": 7281,
      "경기": 7282,
      "메일": 7283,
      "전시": 7284,
      "##pecially": 7285,
      "주문한": 7286,
      "sou": 7287,
      "고려": 7288,
      "남편": 7289,
      "colors": 7290,
      "occur": 7291,
      "방법이": 7292,
      "Che": 7293,
      "가진": 7294,
      "##ories": 7295,
      "soci": 7296,
      "including": 7297,
      "cup": 7298,
      "좋겠습니다": 7299,
      "##ged": 7300,
      "##스에": 7301,
      "역시": 7302,
      "opt": 7303,
      "cause": 7304,
      "wall": 7305,
      "repres": 7306,
      "traditional": 7307,
      "econom": 7308,
      "움직": 7309,
      "아름다운": 7310,
      "마치": 7311,
      "##보는": 7312,
      "##ane": 7313,
      "stat": 7314,
      "style": 7315,
      "factory": 7316,
      "hon": 7317,
      "절대": 7318,
      "##였어요": 7319,
      "세상": 7320,
      "친절": 7321,
      "##되면": 7322,
      "located": 7323,
      "먹어": 7324,
      "abs": 7325,
      "attract": 7326,
      "giving": 7327,
      "것처럼": 7328,
      "너와": 7329,
      "자리": 7330,
      "##iding": 7331,
      "deep": 7332,
      "history": 7333,
      "duty": 7334,
      "sick": 7335,
      "street": 7336,
      "probably": 7337,
      "##atched": 7338,
      "known": 7339,
      "##ission": 7340,
      "baby": 7341,
      "14": 7342,
      "cash": 7343,
      "경제": 7344,
      "어머니": 7345,
      "meaning": 7346,
      "경찰": 7347,
      "주시면": 7348,
      "meat": 7349,
      "근처에": 7350,
      "Philippines": 7351,
      "##물이": 7352,
      "##pped": 7353,
      "외국인": 7354,
      "mass": 7355,
      "govern": 7356,
      "아니요": 7357,
      "value": 7358,
      "dro": 7359,
      "갖고": 7360,
      "방금": 7361,
      "촬영": 7362,
      "trust": 7363,
      "bur": 7364,
      "아까": 7365,
      "##정적인": 7366,
      "##하자": 7367,
      "##mm": 7368,
      "##잖아요": 7369,
      "고객님": 7370,
      "indust": 7371,
      "연습": 7372,
      "이게": 7373,
      "##bal": 7374,
      "##ateg": 7375,
      "fa": 7376,
      "##bo": 7377,
      "Should": 7378,
      "관심이": 7379,
      "glo": 7380,
      "clos": 7381,
      "dest": 7382,
      "fail": 7383,
      "당연": 7384,
      "뒤에": 7385,
      "오전": 7386,
      "##lebr": 7387,
      "prin": 7388,
      "비행기": 7389,
      "과정": 7390,
      "순간": 7391,
      "##ountain": 7392,
      "##itting": 7393,
      "분야": 7394,
      "##이라도": 7395,
      "드라마": 7396,
      "일부": 7397,
      "기다리": 7398,
      "serious": 7399,
      "opportun": 7400,
      "신발": 7401,
      "흥미": 7402,
      "##치가": 7403,
      "looked": 7404,
      "war": 7405,
      "멋진": 7406,
      "comfortable": 7407,
      "De": 7408,
      "이걸": 7409,
      "ord": 7410,
      "##astic": 7411,
      "changes": 7412,
      "mistake": 7413,
      "보러": 7414,
      "부산": 7415,
      "##하길": 7416,
      "보내주세요": 7417,
      "simple": 7418,
      "우리나라": 7419,
      "##스터": 7420,
      "guys": 7421,
      "강아": 7422,
      "오른": 7423,
      "Here": 7424,
      "flow": 7425,
      "healthy": 7426,
      "By": 7427,
      "저렴": 7428,
      "##마트": 7429,
      "guest": 7430,
      "consum": 7431,
      "div": 7432,
      "##na": 7433,
      "##냅니다": 7434,
      "road": 7435,
      "정확한": 7436,
      "creat": 7437,
      "거죠": 7438,
      "받지": 7439,
      "##인의": 7440,
      "##주에": 7441,
      "##합니까": 7442,
      "##ude": 7443,
      "##실이": 7444,
      "contents": 7445,
      "나오는": 7446,
      "results": 7447,
      "관해": 7448,
      "##서에": 7449,
      "directly": 7450,
      "Park": 7451,
      "record": 7452,
      "transport": 7453,
      "single": 7454,
      "ball": 7455,
      "저기": 7456,
      "친구를": 7457,
      "조금만": 7458,
      "Just": 7459,
      "ben": 7460,
      "base": 7461,
      "공급": 7462,
      "##의를": 7463,
      "##gress": 7464,
      "##erature": 7465,
      "subject": 7466,
      "celebr": 7467,
      "금요일": 7468,
      "보호": 7469,
      "분석": 7470,
      "##ural": 7471,
      "dram": 7472,
      "결국": 7473,
      "수는": 7474,
      "spicy": 7475,
      "estim": 7476,
      "Han": 7477,
      "똑같": 7478,
      "##이니": 7479,
      "##주시기": 7480,
      "##지요": 7481,
      "##just": 7482,
      "board": 7483,
      "그에게": 7484,
      "근무": 7485,
      "##데이트": 7486,
      "##졌어요": 7487,
      "door": 7488,
      "추가로": 7489,
      "건데": 7490,
      "##nes": 7491,
      "convers": 7492,
      "##ulation": 7493,
      "##aka": 7494,
      "dress": 7495,
      "길을": 7496,
      "##까지는": 7497,
      "많습니다": 7498,
      "업데이트": 7499,
      "##ible": 7500,
      "고맙": 7501,
      "그걸": 7502,
      "##ken": 7503,
      "##쪽에": 7504,
      "##anger": 7505,
      "costs": 7506,
      "Many": 7507,
      "몰랐": 7508,
      "축하": 7509,
      "##관에": 7510,
      "careful": 7511,
      "passed": 7512,
      "##스러운": 7513,
      "17": 7514,
      "cir": 7515,
      "보기": 7516,
      "일정을": 7517,
      "최고의": 7518,
      "vers": 7519,
      "##ying": 7520,
      "##십니까": 7521,
      "rev": 7522,
      "Hong": 7523,
      "cool": 7524,
      "바람": 7525,
      "아직도": 7526,
      "보세요": 7527,
      "하세요": 7528,
      "##어로": 7529,
      "##ton": 7530,
      "example": 7531,
      "From": 7532,
      "ill": 7533,
      "넣어": 7534,
      "받는": 7535,
      "##aving": 7536,
      "select": 7537,
      "가져다": 7538,
      "gradu": 7539,
      "ing": 7540,
      "mention": 7541,
      "아빠": 7542,
      "교통": 7543,
      "시에": 7544,
      "suit": 7545,
      "film": 7546,
      "생일": 7547,
      "##대에": 7548,
      "전화를": 7549,
      "wife": 7550,
      "##cent": 7551,
      "##cri": 7552,
      "##ufact": 7553,
      "##드시": 7554,
      "##ams": 7555,
      "University": 7556,
      "cream": 7557,
      "그리": 7558,
      "1st": 7559,
      "Not": 7560,
      "갑니다": 7561,
      "개의": 7562,
      "exhib": 7563,
      "repl": 7564,
      "운동을": 7565,
      "즐겁": 7566,
      "tonight": 7567,
      "certain": 7568,
      "##ique": 7569,
      "samples": 7570,
      "경쟁": 7571,
      "버스를": 7572,
      "줍니다": 7573,
      "주말에": 7574,
      "depos": 7575,
      "부담": 7576,
      "##셨나요": 7577,
      "equip": 7578,
      "ice": 7579,
      "표시": 7580,
      "##할까요": 7581,
      "출근": 7582,
      "prefer": 7583,
      "음식은": 7584,
      "Busan": 7585,
      "역할": 7586,
      "영국": 7587,
      "형태": 7588,
      "회신": 7589,
      "##uly": 7590,
      "##erve": 7591,
      "abroad": 7592,
      "Isn": 7593,
      "bill": 7594,
      "떠나": 7595,
      "시간은": 7596,
      "sports": 7597,
      "join": 7598,
      "Pro": 7599,
      "land": 7600,
      "동일": 7601,
      "##idence": 7602,
      "어디로": 7603,
      "local": 7604,
      "standard": 7605,
      "만났": 7606,
      "병원": 7607,
      "온라인": 7608,
      "의사": 7609,
      "##오는": 7610,
      "##전을": 7611,
      "##르고": 7612,
      "사람의": 7613,
      "마지막으로": 7614,
      "married": 7615,
      "##이드": 7616,
      "##대를": 7617,
      "기다리고": 7618,
      "training": 7619,
      "크리스": 7620,
      "##이면": 7621,
      "##있습니다": 7622,
      "content": 7623,
      "회사는": 7624,
      "ingred": 7625,
      "비교": 7626,
      "전공": 7627,
      "##정한": 7628,
      "##왔습니다": 7629,
      "아이디": 7630,
      "employee": 7631,
      "정신": 7632,
      "##edi": 7633,
      "print": 7634,
      "있어야": 7635,
      "하는지": 7636,
      "상품을": 7637,
      "fresh": 7638,
      "##만에": 7639,
      "regular": 7640,
      "이름을": 7641,
      "management": 7642,
      "manufact": 7643,
      "30분": 7644,
      "given": 7645,
      "respect": 7646,
      "remain": 7647,
      "solve": 7648,
      "package": 7649,
      "가까운": 7650,
      "games": 7651,
      "##권을": 7652,
      "이름은": 7653,
      "activities": 7654,
      "sweet": 7655,
      "고양": 7656,
      "##이블": 7657,
      "##롭게": 7658,
      "반드시": 7659,
      "##itted": 7660,
      "##over": 7661,
      "##줘서": 7662,
      "##ives": 7663,
      "attach": 7664,
      "##감이": 7665,
      "except": 7666,
      "스케줄": 7667,
      "cake": 7668,
      "방향": 7669,
      "배달": 7670,
      "티켓": 7671,
      "힘든": 7672,
      "언제나": 7673,
      "individ": 7674,
      "lab": 7675,
      "알게": 7676,
      "때까지": 7677,
      "오면": 7678,
      "월요일": 7679,
      "##uk": 7680,
      "supposed": 7681,
      "없고": 7682,
      "##이에": 7683,
      "##심으로": 7684,
      "##더라도": 7685,
      "concer": 7686,
      "police": 7687,
      "의해": 7688,
      "희망": 7689,
      "##도에": 7690,
      "against": 7691,
      "asking": 7692,
      "Air": 7693,
      "있니": 7694,
      "차가": 7695,
      "영어로": 7696,
      "focus": 7697,
      "equipment": 7698,
      "나머": 7699,
      "purp": 7700,
      "infl": 7701,
      "눈이": 7702,
      "브랜드": 7703,
      "##량을": 7704,
      "##ze": 7705,
      "##움을": 7706,
      "##ures": 7707,
      "adjust": 7708,
      "각각": 7709,
      "##ively": 7710,
      "grade": 7711,
      "traveling": 7712,
      "보관": 7713,
      "learning": 7714,
      "swim": 7715,
      "America": 7716,
      "Or": 7717,
      "Wed": 7718,
      "달라": 7719,
      "입력": 7720,
      "재밌": 7721,
      "최종": 7722,
      "screen": 7723,
      "natural": 7724,
      "Go": 7725,
      "보이는": 7726,
      "##fast": 7727,
      "##점에서": 7728,
      "주문을": 7729,
      "society": 7730,
      "ID": 7731,
      "##제품": 7732,
      "##사항": 7733,
      "주시기": 7734,
      "government": 7735,
      "ride": 7736,
      "훨씬": 7737,
      "stru": 7738,
      "behind": 7739,
      "delayed": 7740,
      "Tr": 7741,
      "match": 7742,
      "듣고": 7743,
      "최선을": 7744,
      "##명이": 7745,
      "생각하는": 7746,
      "이유가": 7747,
      "fried": 7748,
      "완벽": 7749,
      "퇴근": 7750,
      "ate": 7751,
      "자동차": 7752,
      "충분히": 7753,
      "submit": 7754,
      "God": 7755,
      "page": 7756,
      "걸리": 7757,
      "아는": 7758,
      "##ches": 7759,
      "##airs": 7760,
      "five": 7761,
      "국제": 7762,
      "사과": 7763,
      "어떨": 7764,
      "soft": 7765,
      "veget": 7766,
      "부분이": 7767,
      "몰라": 7768,
      "스마트": 7769,
      "음료": 7770,
      "participate": 7771,
      "ple": 7772,
      "inqu": 7773,
      "##urther": 7774,
      "##으로는": 7775,
      "생각에": 7776,
      "##aged": 7777,
      "이벤": 7778,
      "##ny": 7779,
      "##oll": 7780,
      "##스타": 7781,
      "##십니다": 7782,
      "dishes": 7783,
      "고등학교": 7784,
      "분위": 7785,
      "제외": 7786,
      "step": 7787,
      "position": 7788,
      "technology": 7789,
      "bath": 7790,
      "fit": 7791,
      "##ught": 7792,
      "##ional": 7793,
      "불러": 7794,
      "신용": 7795,
      "##rance": 7796,
      "##더라": 7797,
      "##read": 7798,
      "관련된": 7799,
      "내게": 7800,
      "잠을": 7801,
      "##하다면": 7802,
      "목적": 7803,
      "평소": 7804,
      "##come": 7805,
      "##셨어요": 7806,
      "access": 7807,
      "00": 7808,
      "21": 7809,
      "camp": 7810,
      "fire": 7811,
      "청구": 7812,
      "##디오": 7813,
      "##ilities": 7814,
      "shipped": 7815,
      "South": 7816,
      "며칠": 7817,
      "못한": 7818,
      "증가": 7819,
      "##봐야": 7820,
      "##수는": 7821,
      "아니에요": 7822,
      "같아서": 7823,
      "##nesday": 7824,
      "Wednesday": 7825,
      "Sp": 7826,
      "sense": 7827,
      "##izing": 7828,
      "separately": 7829,
      "##selves": 7830,
      "도서": 7831,
      "신고": 7832,
      "##사에서": 7833,
      "sens": 7834,
      "비가": 7835,
      "인형": 7836,
      "추억": 7837,
      "##동생": 7838,
      "overse": 7839,
      "mis": 7840,
      "계좌": 7841,
      "말하는": 7842,
      "찾을": 7843,
      "홍보": 7844,
      "##도는": 7845,
      "##만큼": 7846,
      "ability": 7847,
      "lugg": 7848,
      "친구들이": 7849,
      "poor": 7850,
      "streng": 7851,
      "certific": 7852,
      "내부": 7853,
      "반대": 7854,
      "소중": 7855,
      "lose": 7856,
      "rooms": 7857,
      "자신이": 7858,
      "##사와": 7859,
      "attention": 7860,
      "decide": 7861,
      "par": 7862,
      "방식": 7863,
      "##아야": 7864,
      "choice": 7865,
      "surpr": 7866,
      "His": 7867,
      "맞춰": 7868,
      "여전히": 7869,
      "##mon": 7870,
      "##었고": 7871,
      "##웠습니다": 7872,
      "학교에서": 7873,
      "Exc": 7874,
      "impress": 7875,
      "영화는": 7876,
      "모습을": 7877,
      "지속": 7878,
      "##으로부터": 7879,
      "상대": 7880,
      "있었어": 7881,
      "##icle": 7882,
      "위해서는": 7883,
      "mag": 7884,
      "ways": 7885,
      "보입니다": 7886,
      "없는데": 7887,
      "##이었어요": 7888,
      "##ili": 7889,
      "appoint": 7890,
      "carry": 7891,
      "skills": 7892,
      "reasons": 7893,
      "drive": 7894,
      "1년": 7895,
      "Ne": 7896,
      "hang": 7897,
      "ter": 7898,
      "곳에": 7899,
      "##수록": 7900,
      "visited": 7901,
      "모르겠어요": 7902,
      "##ruction": 7903,
      "기록": 7904,
      "주차": 7905,
      "##els": 7906,
      "breakfast": 7907,
      "luggage": 7908,
      "lower": 7909,
      "프랑": 7910,
      "##개를": 7911,
      "assign": 7912,
      "apart": 7913,
      "날씨가": 7914,
      "즐거운": 7915,
      "##해줄": 7916,
      "addition": 7917,
      "required": 7918,
      "slow": 7919,
      "kne": 7920,
      "common": 7921,
      "서비스를": 7922,
      "effort": 7923,
      "fig": 7924,
      "없다고": 7925,
      "확인하고": 7926,
      "했어": 7927,
      "##만의": 7928,
      "progress": 7929,
      "사람들": 7930,
      "여기는": 7931,
      "arm": 7932,
      "Although": 7933,
      "either": 7934,
      "festival": 7935,
      "lic": 7936,
      "알겠습니다": 7937,
      "축제": 7938,
      "바다": 7939,
      "집으로": 7940,
      "satisf": 7941,
      "작동": 7942,
      "주제": 7943,
      "compl": 7944,
      "23": 7945,
      "같네요": 7946,
      "사건": 7947,
      "##으러": 7948,
      "##것도": 7949,
      "wearing": 7950,
      "stick": 7951,
      "actually": 7952,
      "soup": 7953,
      "최소": 7954,
      "decision": 7955,
      "Ar": 7956,
      "그대로": 7957,
      "원합니다": 7958,
      "할게요": 7959,
      "##met": 7960,
      "##에서의": 7961,
      "running": 7962,
      "released": 7963,
      "개선": 7964,
      "doctor": 7965,
      "##useum": 7966,
      "돌아가": 7967,
      "바라요": 7968,
      "practice": 7969,
      "Tell": 7970,
      "그거": 7971,
      "일에": 7972,
      "잠깐": 7973,
      "##orth": 7974,
      "perm": 7975,
      "hate": 7976,
      "기분": 7977,
      "들었습니다": 7978,
      "행복한": 7979,
      "included": 7980,
      "overseas": 7981,
      "모양": 7982,
      "입금": 7983,
      "##으로써": 7984,
      "phys": 7985,
      "apolog": 7986,
      "최근에": 7987,
      "60": 7988,
      "들고": 7989,
      "통화": 7990,
      "cover": 7991,
      "주시겠어요": 7992,
      "confirmed": 7993,
      "##ergy": 7994,
      "protect": 7995,
      "represent": 7996,
      "Su": 7997,
      "boss": 7998,
      "##실을": 7999,
      "ang": 8000,
      "aren": 8001,
      "pm": 8002,
      "달에": 8003,
      "주인": 8004,
      "##je": 8005,
      "필요가": 8006,
      "tickets": 8007,
      "glass": 8008,
      "broken": 8009,
      "일주일": 8010,
      "Excuse": 8011,
      "dom": 8012,
      "정부": 8013,
      "##증이": 8014,
      "무엇인가요": 8015,
      "Euro": 8016,
      "싶지": 8017,
      "##bile": 8018,
      "##포츠": 8019,
      "di": 8020,
      "기차": 8021,
      "성장": 8022,
      "예약을": 8023,
      "Take": 8024,
      "예술": 8025,
      "치료": 8026,
      "##위를": 8027,
      "##lex": 8028,
      "##ocol": 8029,
      "port": 8030,
      "watched": 8031,
      "토요일": 8032,
      "##기의": 8033,
      "traff": 8034,
      "tea": 8035,
      "음식이": 8036,
      "남자친구": 8037,
      "수입": 8038,
      "urg": 8039,
      "주셔서": 8040,
      "##mas": 8041,
      "##자에게": 8042,
      "smell": 8043,
      "provided": 8044,
      "daily": 8045,
      "인보": 8046,
      "##스토": 8047,
      "dead": 8048,
      "##이라면": 8049,
      "무엇이": 8050,
      "version": 8051,
      "Fe": 8052,
      "돈이": 8053,
      "하려고": 8054,
      "##ots": 8055,
      "방법은": 8056,
      "지난번": 8057,
      "coun": 8058,
      "sun": 8059,
      "이전": 8060,
      "중에서": 8061,
      "##hy": 8062,
      "collect": 8063,
      "convenient": 8064,
      "individual": 8065,
      "것과": 8066,
      "국내": 8067,
      "나누": 8068,
      "너한테": 8069,
      "##로운": 8070,
      "##더니": 8071,
      "heav": 8072,
      "##cious": 8073,
      "두고": 8074,
      "활용": 8075,
      "덕분에": 8076,
      "시장": 8077,
      "##gn": 8078,
      "##adem": 8079,
      "##ules": 8080,
      "##yeong": 8081,
      "어려운": 8082,
      "immedi": 8083,
      "점이": 8084,
      "주의": 8085,
      "사람들에게": 8086,
      "selling": 8087,
      "게임을": 8088,
      "정상": 8089,
      "제주": 8090,
      "조심": 8091,
      "##생활": 8092,
      "##ured": 8093,
      "guide": 8094,
      "blue": 8095,
      "developed": 8096,
      "Te": 8097,
      "된다면": 8098,
      "중이에요": 8099,
      "##이너": 8100,
      "##나게": 8101,
      "##chi": 8102,
      "##une": 8103,
      "저녁에": 8104,
      "location": 8105,
      "basic": 8106,
      "자체": 8107,
      "##izz": 8108,
      "sauce": 8109,
      "played": 8110,
      "seats": 8111,
      "Jo": 8112,
      "많아요": 8113,
      "피해": 8114,
      "##ability": 8115,
      "아무것도": 8116,
      "gives": 8117,
      "treatment": 8118,
      "단지": 8119,
      "##me": 8120,
      "starting": 8121,
      "가격을": 8122,
      "normal": 8123,
      "traffic": 8124,
      "Man": 8125,
      "스스로": 8126,
      "##ground": 8127,
      "##학을": 8128,
      "##aint": 8129,
      "plans": 8130,
      "경험을": 8131,
      "exactly": 8132,
      "wed": 8133,
      "그럴": 8134,
      "약간": 8135,
      "중간": 8136,
      "##계를": 8137,
      "##amed": 8138,
      "booked": 8139,
      "##주시겠어요": 8140,
      "entrance": 8141,
      "Jeju": 8142,
      "다르": 8143,
      "집을": 8144,
      "통해서": 8145,
      "##자로": 8146,
      "stress": 8147,
      "제품에": 8148,
      "아이템": 8149,
      "Christmas": 8150,
      "ten": 8151,
      "##하려": 8152,
      "autom": 8153,
      "오랜만에": 8154,
      "eye": 8155,
      "바뀌": 8156,
      "영상": 8157,
      "점점": 8158,
      "##량이": 8159,
      "stra": 8160,
      "사람들을": 8161,
      "seeing": 8162,
      "concert": 8163,
      "driving": 8164,
      "types": 8165,
      "Ad": 8166,
      "gone": 8167,
      "하게": 8168,
      "toward": 8169,
      "##acks": 8170,
      "##rought": 8171,
      "Internet": 8172,
      "achieve": 8173,
      "mentioned": 8174,
      "때마다": 8175,
      "search": 8176,
      "passport": 8177,
      "international": 8178,
      "temperature": 8179,
      "못했습니다": 8180,
      "포기": 8181,
      "window": 8182,
      "With": 8183,
      "수행": 8184,
      "실수": 8185,
      "정확히": 8186,
      "서류를": 8187,
      "exhibition": 8188,
      "기념": 8189,
      "들었어요": 8190,
      "맛이": 8191,
      "저한테": 8192,
      "##하기를": 8193,
      "ident": 8194,
      "danger": 8195,
      "##ooper": 8196,
      "문제는": 8197,
      "issues": 8198,
      "이메일": 8199,
      "prevent": 8200,
      "술을": 8201,
      "##겠다고": 8202,
      "##적이고": 8203,
      "##uge": 8204,
      "##onven": 8205,
      "measure": 8206,
      "adult": 8207,
      "감사하겠습니다": 8208,
      "메시지를": 8209,
      "straight": 8210,
      "3일": 8211,
      "않으": 8212,
      "##학생": 8213,
      "libr": 8214,
      "있으며": 8215,
      "괜찮을": 8216,
      "어떠한": 8217,
      "대체": 8218,
      "송금": 8219,
      "##면을": 8220,
      "##하시고": 8221,
      "##한다는": 8222,
      "##원은": 8223,
      "Well": 8224,
      "Thurs": 8225,
      "Thursday": 8226,
      "발급": 8227,
      "차이가": 8228,
      "품질": 8229,
      "##ky": 8230,
      "##주고": 8231,
      "percent": 8232,
      "internet": 8233,
      "transportation": 8234,
      "save": 8235,
      "구조": 8236,
      "이는": 8237,
      "##하거나": 8238,
      "fru": 8239,
      "priv": 8240,
      "동의": 8241,
      "면세": 8242,
      "지켜": 8243,
      "plane": 8244,
      "Germ": 8245,
      "catch": 8246,
      "대하여": 8247,
      "없었습니다": 8248,
      "완전히": 8249,
      "##점에": 8250,
      "driver": 8251,
      "luck": 8252,
      "opportunity": 8253,
      "deposit": 8254,
      "Pl": 8255,
      "##았는데": 8256,
      "Sec": 8257,
      "ris": 8258,
      "나무": 8259,
      "쓰는": 8260,
      "편안": 8261,
      "##rit": 8262,
      "##bby": 8263,
      "##자와": 8264,
      "##urance": 8265,
      "suff": 8266,
      "##apt": 8267,
      "확인해보": 8268,
      "helps": 8269,
      "thanks": 8270,
      "mountain": 8271,
      "걸릴": 8272,
      "##지의": 8273,
      "##oid": 8274,
      "##표를": 8275,
      "##문을": 8276,
      "inconven": 8277,
      "desk": 8278,
      "finally": 8279,
      "샘플을": 8280,
      "suddenly": 8281,
      "찍어": 8282,
      "평가": 8283,
      "##ccer": 8284,
      "register": 8285,
      "자신을": 8286,
      "nearby": 8287,
      "American": 8288,
      "인기": 8289,
      "##어진": 8290,
      "##즈니": 8291,
      "##님께서": 8292,
      "스포츠": 8293,
      "인사": 8294,
      "##bor": 8295,
      "##었을": 8296,
      "##ential": 8297,
      "memory": 8298,
      "general": 8299,
      "못할": 8300,
      "##uous": 8301,
      "##oud": 8302,
      "beach": 8303,
      "role": 8304,
      "added": 8305,
      "wedding": 8306,
      "mot": 8307,
      "그룹": 8308,
      "더는": 8309,
      "부서": 8310,
      "##르면": 8311,
      "compared": 8312,
      "Min": 8313,
      "남은": 8314,
      "빠르게": 8315,
      "energy": 8316,
      "United": 8317,
      "brought": 8318,
      "oil": 8319,
      "##por": 8320,
      "beer": 8321,
      "##하고자": 8322,
      "여자친구": 8323,
      "academ": 8324,
      "engine": 8325,
      "일요일": 8326,
      "##어는": 8327,
      "score": 8328,
      "선물을": 8329,
      "professor": 8330,
      "becomes": 8331,
      "완성": 8332,
      "##hor": 8333,
      "shape": 8334,
      "happiness": 8335,
      "behav": 8336,
      "대부분의": 8337,
      "##스럽게": 8338,
      "메일로": 8339,
      "봐요": 8340,
      "운송": 8341,
      "impos": 8342,
      "older": 8343,
      "##더라고요": 8344,
      "방송": 8345,
      "인도": 8346,
      "제시": 8347,
      "주십시오": 8348,
      "##하다는": 8349,
      "##rd": 8350,
      "##페이지": 8351,
      "third": 8352,
      "moved": 8353,
      "born": 8354,
      "defin": 8355,
      "especially": 8356,
      "그동안": 8357,
      "일하고": 8358,
      "##ik": 8359,
      "hasn": 8360,
      "regret": 8361,
      "##ograp": 8362,
      "younger": 8363,
      "task": 8364,
      "대단": 8365,
      "올려": 8366,
      "##인가": 8367,
      "##imum": 8368,
      "moving": 8369,
      "##acy": 8370,
      "거짓": 8371,
      "비싸": 8372,
      "아래와": 8373,
      "Maybe": 8374,
      "higher": 8375,
      "ingredients": 8376,
      "ess": 8377,
      "선수": 8378,
      "취미": 8379,
      "택배": 8380,
      "##head": 8381,
      "sched": 8382,
      "foods": 8383,
      "cooper": 8384,
      "uncom": 8385,
      "continue": 8386,
      "conversation": 8387,
      "license": 8388,
      "##명을": 8389,
      "member": 8390,
      "earth": 8391,
      "기회가": 8392,
      "크리스마": 8393,
      "cos": 8394,
      "##do": 8395,
      "##했지만": 8396,
      "whenever": 8397,
      "feels": 8398,
      "##ogn": 8399,
      "classes": 8400,
      "않아도": 8401,
      "그곳에": 8402,
      "certificate": 8403,
      "Asi": 8404,
      "nood": 8405,
      "언제쯤": 8406,
      "listening": 8407,
      "Europe": 8408,
      "library": 8409,
      "300": 8410,
      "했던": 8411,
      "##회에": 8412,
      "liked": 8413,
      "advertise": 8414,
      "##ex": 8415,
      "##iol": 8416,
      "##시까지": 8417,
      "stuff": 8418,
      "##imb": 8419,
      "wouldn": 8420,
      "그렇지": 8421,
      "copy": 8422,
      "제거": 8423,
      "##여행": 8424,
      "##atic": 8425,
      "weak": 8426,
      "cheap": 8427,
      "감사드립니다": 8428,
      "어때요": 8429,
      "bright": 8430,
      "mine": 8431,
      "과거": 8432,
      "나랑": 8433,
      "삶을": 8434,
      "설정": 8435,
      "##기고": 8436,
      "##학년": 8437,
      "##ief": 8438,
      "beginning": 8439,
      "22": 8440,
      "et": 8441,
      "정해": 8442,
      "##나는": 8443,
      "##ps": 8444,
      "사람에게": 8445,
      "sale": 8446,
      "아마도": 8447,
      "semester": 8448,
      "soccer": 8449,
      "trouble": 8450,
      "정도로": 8451,
      "괜찮은": 8452,
      "changing": 8453,
      "block": 8454,
      "Most": 8455,
      "그날": 8456,
      "밖에": 8457,
      "우린": 8458,
      "upload": 8459,
      "displ": 8460,
      "apologize": 8461,
      "Last": 8462,
      "mill": 8463,
      "출시": 8464,
      "##하네요": 8465,
      "##상으로": 8466,
      "그렇군요": 8467,
      "남자는": 8468,
      "에어": 8469,
      "합니까": 8470,
      "##카오": 8471,
      "calling": 8472,
      "Acc": 8473,
      "Tues": 8474,
      "잊지": 8475,
      "##cer": 8476,
      "##비가": 8477,
      "친구는": 8478,
      "사랑하는": 8479,
      "종류의": 8480,
      "uncomfortable": 8481,
      "Tuesday": 8482,
      "net": 8483,
      "부드": 8484,
      "할지": 8485,
      "##되어야": 8486,
      "가격은": 8487,
      "drinking": 8488,
      "프로젝트": 8489,
      "industry": 8490,
      "성적": 8491,
      "##aw": 8492,
      "forgot": 8493,
      "unique": 8494,
      "media": 8495,
      "animals": 8496,
      "Jan": 8497,
      "hit": 8498,
      "때부터": 8499,
      "재료": 8500,
      "##기와": 8501,
      "##렸을": 8502,
      "##관이": 8503,
      "작업을": 8504,
      "Act": 8505,
      "근데": 8506,
      "반응": 8507,
      "어쩔": 8508,
      "페이스": 8509,
      "##자에": 8510,
      "##관을": 8511,
      "condu": 8512,
      "purpose": 8513,
      "갔어요": 8514,
      "##주시면": 8515,
      "사진은": 8516,
      "추천해": 8517,
      "influ": 8518,
      "dark": 8519,
      "날이": 8520,
      "##자들은": 8521,
      "death": 8522,
      "arr": 8523,
      "거라고": 8524,
      "리스트": 8525,
      "##ato": 8526,
      "fell": 8527,
      "studied": 8528,
      "않았어": 8529,
      "staying": 8530,
      "비용을": 8531,
      "memories": 8532,
      "likes": 8533,
      "깨끗": 8534,
      "맞아": 8535,
      "있던": 8536,
      "하니": 8537,
      "##전거": 8538,
      "medical": 8539,
      "##품이": 8540,
      "##istic": 8541,
      "finan": 8542,
      "비용이": 8543,
      "benef": 8544,
      "먹으면": 8545,
      "밤에": 8546,
      "챙겨": 8547,
      "혹은": 8548,
      "##주실": 8549,
      "biggest": 8550,
      "promotion": 8551,
      "cooking": 8552,
      "properly": 8553,
      "green": 8554,
      "nature": 8555,
      "사라": 8556,
      "월요일에": 8557,
      "장난": 8558,
      "좌석": 8559,
      "파일": 8560,
      "현금": 8561,
      "##하셔야": 8562,
      "##iety": 8563,
      "어렵습니다": 8564,
      "갔습니다": 8565,
      "##man": 8566,
      "10분": 8567,
      "recogn": 8568,
      "맥주": 8569,
      "상처": 8570,
      "예를": 8571,
      "유럽": 8572,
      "적당": 8573,
      "##cast": 8574,
      "##fety": 8575,
      "##드려요": 8576,
      "shall": 8577,
      "가르쳐": 8578,
      "lack": 8579,
      "건지": 8580,
      "비밀": 8581,
      "##스의": 8582,
      "있을까": 8583,
      "bread": 8584,
      "기회를": 8585,
      "immediately": 8586,
      "impossible": 8587,
      "면접": 8588,
      "##하려면": 8589,
      "##드가": 8590,
      "global": 8591,
      "Lee": 8592,
      "맞나요": 8593,
      "##서가": 8594,
      "##지와": 8595,
      "##일까지": 8596,
      "##대가": 8597,
      "교수님": 8598,
      "cosmet": 8599,
      "2nd": 8600,
      "mix": 8601,
      "가득": 8602,
      "것보다": 8603,
      "싶어서": 8604,
      "##실에서": 8605,
      "button": 8606,
      "volunt": 8607,
      "휴대폰": 8608,
      "못했어요": 8609,
      "인기가": 8610,
      "제한": 8611,
      "##inal": 8612,
      "##illed": 8613,
      "##ulations": 8614,
      "lecture": 8615,
      "leaving": 8616,
      "##하기로": 8617,
      "paint": 8618,
      "communication": 8619,
      "strength": 8620,
      "솔직": 8621,
      "이사": 8622,
      "##임을": 8623,
      "smile": 8624,
      "가입": 8625,
      "교체": 8626,
      "귀사의": 8627,
      "병원에": 8628,
      "언니": 8629,
      "자료를": 8630,
      "치즈": 8631,
      "##지로": 8632,
      "shouldn": 8633,
      "customs": 8634,
      "잠시만": 8635,
      "입학": 8636,
      "도착할": 8637,
      "fan": 8638,
      "sci": 8639,
      "검색": 8640,
      "일하는": 8641,
      "##느라": 8642,
      "보내고": 8643,
      "foot": 8644,
      "상황을": 8645,
      "bal": 8646,
      "##ners": 8647,
      "##만을": 8648,
      "island": 8649,
      "Island": 8650,
      "확실히": 8651,
      "Oh": 8652,
      "viol": 8653,
      "가요": 8654,
      "이곳은": 8655,
      "terms": 8656,
      "자격": 8657,
      "starts": 8658,
      "appointment": 8659,
      "non": 8660,
      "너도": 8661,
      "휴가": 8662,
      "##었지만": 8663,
      "##상의": 8664,
      "생각하고": 8665,
      "States": 8666,
      "orders": 8667,
      "나머지": 8668,
      "ed": 8669,
      "gain": 8670,
      "원해요": 8671,
      "자전거": 8672,
      "##gu": 8673,
      "##가락": 8674,
      "##NS": 8675,
      "##ats": 8676,
      "하면서": 8677,
      "동아": 8678,
      "조용": 8679,
      "있으신가요": 8680,
      "preparing": 8681,
      "concent": 8682,
      "##ashion": 8683,
      "separate": 8684,
      "chocol": 8685,
      "한국은": 8686,
      "solution": 8687,
      "관심을": 8688,
      "frequ": 8689,
      "동생": 8690,
      "쓰고": 8691,
      "일정이": 8692,
      "##래도": 8693,
      "##iment": 8694,
      "action": 8695,
      "예전": 8696,
      "할머니": 8697,
      "##했다고": 8698,
      "##itude": 8699,
      "##aced": 8700,
      "##ney": 8701,
      "##ledge": 8702,
      "dry": 8703,
      "가기": 8704,
      "축구": 8705,
      "케이크": 8706,
      "노래를": 8707,
      "Somet": 8708,
      "kept": 8709,
      "##경을": 8710,
      "##듭니다": 8711,
      "##urity": 8712,
      "##ters": 8713,
      "chall": 8714,
      "maintain": 8715,
      "limit": 8716,
      "비슷한": 8717,
      "마무": 8718,
      "물을": 8719,
      "이를": 8720,
      "##bit": 8721,
      "##pond": 8722,
      "##났습니다": 8723,
      "##verage": 8724,
      "알려줄": 8725,
      "하나의": 8726,
      "Her": 8727,
      "단계": 8728,
      "실례": 8729,
      "파일을": 8730,
      "포인": 8731,
      "##kg": 8732,
      "##ires": 8733,
      "그녀에게": 8734,
      "wrote": 8735,
      "##해주시면": 8736,
      "같은데요": 8737,
      "궁금합니다": 8738,
      "milk": 8739,
      "inquir": 8740,
      "aud": 8741,
      "huge": 8742,
      "이어": 8743,
      "헤어": 8744,
      "훌륭": 8745,
      "##트로": 8746,
      "번째로": 8747,
      "parking": 8748,
      "##스토랑": 8749,
      "27": 8750,
      "색깔": 8751,
      "않나요": 8752,
      "##하다": 8753,
      "town": 8754,
      "##icient": 8755,
      "feed": 8756,
      "spent": 8757,
      "personality": 8758,
      "시험을": 8759,
      "error": 8760,
      "검사": 8761,
      "그랬": 8762,
      "뭐가": 8763,
      "인상": 8764,
      "이용할": 8765,
      "handle": 8766,
      "부분을": 8767,
      "walking": 8768,
      "어린이": 8769,
      "heavy": 8770,
      "Apri": 8771,
      "Kaka": 8772,
      "느낄": 8773,
      "레스토랑": 8774,
      "않도록": 8775,
      "조사": 8776,
      "##라이": 8777,
      "##여서": 8778,
      "allowed": 8779,
      "official": 8780,
      "circ": 8781,
      "즐겁게": 8782,
      "페이스북": 8783,
      "뉴욕": 8784,
      "못해서": 8785,
      "쓰레": 8786,
      "##우는": 8787,
      "##ury": 8788,
      "##ilt": 8789,
      "##aves": 8790,
      "예정이에요": 8791,
      "purchased": 8792,
      "Any": 8793,
      "fight": 8794,
      "뛰어": 8795,
      "수술": 8796,
      "mobile": 8797,
      "enc": 8798,
      "계획을": 8799,
      "미안하지만": 8800,
      "responsibility": 8801,
      "Everyone": 8802,
      "fault": 8803,
      "conduct": 8804,
      "April": 8805,
      "Aug": 8806,
      "museum": 8807,
      "national": 8808,
      "수리": 8809,
      "##장으로": 8810,
      "##att": 8811,
      "##ises": 8812,
      "direction": 8813,
      "마시고": 8814,
      "##거리": 8815,
      "##였어": 8816,
      "supply": 8817,
      "저번에": 8818,
      "lay": 8819,
      "잃어버": 8820,
      "지연": 8821,
      "치킨": 8822,
      "##ada": 8823,
      "확인할": 8824,
      "만나서": 8825,
      "turned": 8826,
      "주인공": 8827,
      "March": 8828,
      "느꼈": 8829,
      "다들": 8830,
      "##uary": 8831,
      "##bok": 8832,
      "##원에서": 8833,
      "smok": 8834,
      "만들고": 8835,
      "shown": 8836,
      "diet": 8837,
      "나올": 8838,
      "놀러": 8839,
      "마시": 8840,
      "하죠": 8841,
      "한데": 8842,
      "##wan": 8843,
      "comb": 8844,
      "note": 8845,
      "repair": 8846,
      "모르겠어": 8847,
      "understanding": 8848,
      "distrib": 8849,
      "display": 8850,
      "대중": 8851,
      "참가": 8852,
      "홍콩": 8853,
      "president": 8854,
      "결과를": 8855,
      "대해서는": 8856,
      "알려주시면": 8857,
      "고마워": 8858,
      "North": 8859,
      "ow": 8860,
      "달러": 8861,
      "생기": 8862,
      "않게": 8863,
      "제조": 8864,
      "하시": 8865,
      "후회": 8866,
      "##받을": 8867,
      "ant": 8868,
      "stom": 8869,
      "한국인": 8870,
      "York": 8871,
      "짐을": 8872,
      "컬러": 8873,
      "##산을": 8874,
      "##운데": 8875,
      "연락이": 8876,
      "경험이": 8877,
      "fixed": 8878,
      "투자": 8879,
      "한다는": 8880,
      "##ha": 8881,
      "##층에": 8882,
      "feature": 8883,
      "사진이": 8884,
      "insurance": 8885,
      "expenses": 8886,
      "번호를": 8887,
      "object": 8888,
      "Face": 8889,
      "나아": 8890,
      "말할": 8891,
      "버튼": 8892,
      "좋았": 8893,
      "##rim": 8894,
      "##cel": 8895,
      "status": 8896,
      "fashion": 8897,
      "냄새": 8898,
      "보험": 8899,
      "보냅니다": 8900,
      "오랫": 8901,
      "이탈": 8902,
      "초콜": 8903,
      "##itor": 8904,
      "safety": 8905,
      "그녀를": 8906,
      "아무래도": 8907,
      "##드릴까요": 8908,
      "배우고": 8909,
      "continuous": 8910,
      "stomach": 8911,
      "map": 8912,
      "tend": 8913,
      "달라고": 8914,
      "담배": 8915,
      "당장": 8916,
      "지구": 8917,
      "환전": 8918,
      "##hood": 8919,
      "##심을": 8920,
      "##action": 8921,
      "author": 8922,
      "따뜻한": 8923,
      "Aust": 8924,
      "바쁘": 8925,
      "방학": 8926,
      "sto": 8927,
      "competition": 8928,
      "affect": 8929,
      "tar": 8930,
      "곳은": 8931,
      "금방": 8932,
      "실험": 8933,
      "오지": 8934,
      "##정에": 8935,
      "##urch": 8936,
      "shirt": 8937,
      "##istics": 8938,
      "있었던": 8939,
      "effective": 8940,
      "response": 8941,
      "January": 8942,
      "되는지": 8943,
      "심각": 8944,
      "##light": 8945,
      "##소가": 8946,
      "전화번호": 8947,
      "요청한": 8948,
      "cute": 8949,
      "completely": 8950,
      "오랫동안": 8951,
      "말한": 8952,
      "proced": 8953,
      "##unk": 8954,
      "thoughts": 8955,
      "imag": 8956,
      "advant": 8957,
      "음악을": 8958,
      "마을": 8959,
      "만난": 8960,
      "아내": 8961,
      "주소를": 8962,
      "사람들의": 8963,
      "moist": 8964,
      "너랑": 8965,
      "단순": 8966,
      "##터를": 8967,
      "quiet": 8968,
      "confirmation": 8969,
      "reduce": 8970,
      "broad": 8971,
      "자꾸": 8972,
      "주신": 8973,
      "할까요": 8974,
      "##디어": 8975,
      "track": 8976,
      "disp": 8977,
      "Inst": 8978,
      "drama": 8979,
      "스마트폰": 8980,
      "August": 8981,
      "harm": 8982,
      "스테": 8983,
      "##house": 8984,
      "##었으면": 8985,
      "2015": 8986,
      "Second": 8987,
      "cases": 8988,
      "egg": 8989,
      "ground": 8990,
      "가려고": 8991,
      "인정": 8992,
      "중인": 8993,
      "찍은": 8994,
      "천천": 8995,
      "##hol": 8996,
      "##상은": 8997,
      "##izes": 8998,
      "이곳에": 8999,
      "swimming": 9000,
      "천천히": 9001,
      "ver": 9002,
      "수수": 9003,
      "왔는데": 9004,
      "주요": 9005,
      "lived": 9006,
      "너무나": 9007,
      "honest": 9008,
      "etc": 9009,
      "들었어": 9010,
      "하늘": 9011,
      "##cm": 9012,
      "##부를": 9013,
      "reach": 9014,
      "아니고": 9015,
      "무엇입니까": 9016,
      "걱정하지": 9017,
      "누군가": 9018,
      "further": 9019,
      "들을": 9020,
      "분이": 9021,
      "앞에서": 9022,
      "##통을": 9023,
      "##실로": 9024,
      "shut": 9025,
      "##pection": 9026,
      "consult": 9027,
      "services": 9028,
      "detailed": 9029,
      "미술": 9030,
      "빨간": 9031,
      "시켜": 9032,
      "여유": 9033,
      "##lement": 9034,
      "##idered": 9035,
      "happens": 9036,
      "talked": 9037,
      "cafe": 9038,
      "operation": 9039,
      "답변을": 9040,
      "지내고": 9041,
      "의견을": 9042,
      "Facebook": 9043,
      "Cl": 9044,
      "명이": 9045,
      "시도": 9046,
      "##aim": 9047,
      "neg": 9048,
      "neigh": 9049,
      "code": 9050,
      "passion": 9051,
      "하루에": 9052,
      "damage": 9053,
      "PO": 9054,
      "말이야": 9055,
      "종종": 9056,
      "##ended": 9057,
      "unit": 9058,
      "twice": 9059,
      "카드를": 9060,
      "오후에": 9061,
      "초콜릿": 9062,
      "2주": 9063,
      "것이라고": 9064,
      "끝내": 9065,
      "도전": 9066,
      "예쁘": 9067,
      "정류": 9068,
      "해보": 9069,
      "##adays": 9070,
      "Ital": 9071,
      "loved": 9072,
      "caused": 9073,
      "increased": 9074,
      "physical": 9075,
      "생겨": 9076,
      "수준": 9077,
      "요금": 9078,
      "카카오": 9079,
      "해줄": 9080,
      "화가": 9081,
      "##만이": 9082,
      "##업을": 9083,
      "atm": 9084,
      "instru": 9085,
      "bathroom": 9086,
      "Feb": 9087,
      "나쁜": 9088,
      "착용": 9089,
      "##이지만": 9090,
      "##로서": 9091,
      "##ober": 9092,
      "##갑니다": 9093,
      "amaz": 9094,
      "여자가": 9095,
      "include": 9096,
      "policy": 9097,
      "trend": 9098,
      "거짓말": 9099,
      "firm": 9100,
      "진심으로": 9101,
      "##won": 9102,
      "##드려": 9103,
      "##듯이": 9104,
      "물건이": 9105,
      "construction": 9106,
      "demand": 9107,
      "마무리": 9108,
      "aff": 9109,
      "실패": 9110,
      "##자들이": 9111,
      "##zy": 9112,
      "##raft": 9113,
      "고객이": 9114,
      "배송이": 9115,
      "이메일로": 9116,
      "foreigners": 9117,
      "angry": 9118,
      "atmosp": 9119,
      "double": 9120,
      "##고를": 9121,
      "##했으면": 9122,
      "##책을": 9123,
      "##션을": 9124,
      "throw": 9125,
      "정말로": 9126,
      "security": 9127,
      "caf": 9128,
      "financial": 9129,
      "squ": 9130,
      "상담": 9131,
      "판단": 9132,
      "하셨": 9133,
      "##pper": 9134,
      "flu": 9135,
      "사랑을": 9136,
      "2016": 9137,
      "##비는": 9138,
      "회사가": 9139,
      "speed": 9140,
      "##ommod": 9141,
      "crit": 9142,
      "hung": 9143,
      "pork": 9144,
      "파트": 9145,
      "##nel": 9146,
      "##달라고": 9147,
      "상품이": 9148,
      "opened": 9149,
      "프로그램을": 9150,
      "거기에": 9151,
      "과제": 9152,
      "몸이": 9153,
      "오더": 9154,
      "캐나": 9155,
      "특징": 9156,
      "##리로": 9157,
      "##itary": 9158,
      "한국으로": 9159,
      "eval": 9160,
      "strateg": 9161,
      "surg": 9162,
      "그와": 9163,
      "다이어": 9164,
      "세탁": 9165,
      "##set": 9166,
      "considered": 9167,
      "visiting": 9168,
      "knew": 9169,
      "According": 9170,
      "70": 9171,
      "앉아": 9172,
      "##bers": 9173,
      "moder": 9174,
      "bigger": 9175,
      "부분은": 9176,
      "promise": 9177,
      "couple": 9178,
      "borrow": 9179,
      "experiences": 9180,
      "Look": 9181,
      "SNS": 9182,
      "mult": 9183,
      "가시면": 9184,
      "##이프": 9185,
      "##vant": 9186,
      "secret": 9187,
      "entire": 9188,
      "끝나고": 9189,
      "announ": 9190,
      "접수": 9191,
      "증명": 9192,
      "##ob": 9193,
      "feelings": 9194,
      "enjoyed": 9195,
      "이메일을": 9196,
      "복잡": 9197,
      "##하는지": 9198,
      "log": 9199,
      "아무리": 9200,
      "chocolate": 9201,
      "Gang": 9202,
      "말은": 9203,
      "매출": 9204,
      "무서": 9205,
      "싶다": 9206,
      "현대": 9207,
      "##itely": 9208,
      "내용이": 9209,
      "##리의": 9210,
      "##oub": 9211,
      "accommod": 9212,
      "inspection": 9213,
      "create": 9214,
      "어떨까요": 9215,
      "million": 9216,
      "검은": 9217,
      "것들이": 9218,
      "곳에서": 9219,
      "##BC": 9220,
      "##웠어요": 9221,
      "sky": 9222,
      "사이트": 9223,
      "variety": 9224,
      "missing": 9225,
      "자세한": 9226,
      "에너": 9227,
      "조직": 9228,
      "##번째": 9229,
      "knowledge": 9230,
      "생각보다": 9231,
      "blood": 9232,
      "당연히": 9233,
      "fair": 9234,
      "편리": 9235,
      "##명의": 9236,
      "accur": 9237,
      "준비를": 9238,
      "모르는": 9239,
      "상황이": 9240,
      "particular": 9241,
      "가방을": 9242,
      "Next": 9243,
      "다가": 9244,
      "생긴": 9245,
      "어렸을": 9246,
      "##관에서": 9247,
      "cheese": 9248,
      "사용하고": 9249,
      "homework": 9250,
      "stores": 9251,
      "아래의": 9252,
      "canceled": 9253,
      "가자": 9254,
      "대기": 9255,
      "밥을": 9256,
      "아쉽": 9257,
      "적은": 9258,
      "##봐도": 9259,
      "##주셔서": 9260,
      "##카드": 9261,
      "##estic": 9262,
      "spread": 9263,
      "conditions": 9264,
      "cross": 9265,
      "갔다": 9266,
      "돌려": 9267,
      "우유": 9268,
      "##하시나요": 9269,
      "structure": 9270,
      "atmosphere": 9271,
      "App": 9272,
      "pizz": 9273,
      "오직": 9274,
      "##할게": 9275,
      "##aps": 9276,
      "agency": 9277,
      "##ruary": 9278,
      "translation": 9279,
      "February": 9280,
      "nerv": 9281,
      "sil": 9282,
      "과학": 9283,
      "##ym": 9284,
      "##아웃": 9285,
      "leader": 9286,
      "##해주시기": 9287,
      "volunte": 9288,
      "Oct": 9289,
      "Right": 9290,
      "내리": 9291,
      "맞아요": 9292,
      "바이": 9293,
      "전자": 9294,
      "행사": 9295,
      "##으나": 9296,
      "conference": 9297,
      "makeup": 9298,
      "roll": 9299,
      "buyer": 9300,
      "emb": 9301,
      "July": 9302,
      "때가": 9303,
      "언젠": 9304,
      "없다": 9305,
      "즐길": 9306,
      "##omen": 9307,
      "그림을": 9308,
      "dangerous": 9309,
      "Comp": 9310,
      "dad": 9311,
      "되었어요": 9312,
      "초대": 9313,
      "##지면": 9314,
      "1시간": 9315,
      "fem": 9316,
      "것들을": 9317,
      "비즈니": 9318,
      "시각": 9319,
      "##하던": 9320,
      "##면에": 9321,
      "##심이": 9322,
      "오늘도": 9323,
      "require": 9324,
      "##cohol": 9325,
      "캐나다": 9326,
      "명의": 9327,
      "산업": 9328,
      "##품은": 9329,
      "##back": 9330,
      "##별로": 9331,
      "worth": 9332,
      "아이가": 9333,
      "괜찮아": 9334,
      "Dae": 9335,
      "언어": 9336,
      "전략": 9337,
      "##ooth": 9338,
      "spring": 9339,
      "registered": 9340,
      "estimate": 9341,
      "Hy": 9342,
      "Pr": 9343,
      "jud": 9344,
      "대답": 9345,
      "##료가": 9346,
      "##물은": 9347,
      "잘못된": 9348,
      "3rd": 9349,
      "Con": 9350,
      "경영": 9351,
      "데려": 9352,
      "체험": 9353,
      "확인을": 9354,
      "아름답": 9355,
      "영수증": 9356,
      "replace": 9357,
      "vegetables": 9358,
      "cry": 9359,
      "그저": 9360,
      "만한": 9361,
      "아르": 9362,
      "없으면": 9363,
      "##실은": 9364,
      "보내주신": 9365,
      "estab": 9366,
      "behavior": 9367,
      "round": 9368,
      "곳을": 9369,
      "된다": 9370,
      "##상에": 9371,
      "##식은": 9372,
      "##납니다": 9373,
      "reserve": 9374,
      "owner": 9375,
      "fab": 9376,
      "꾸준": 9377,
      "맞추": 9378,
      "배가": 9379,
      "적응": 9380,
      "##사이트": 9381,
      "users": 9382,
      "좋아하지": 9383,
      "buying": 9384,
      "planned": 9385,
      "만나는": 9386,
      "coupon": 9387,
      "선생님이": 9388,
      "surgery": 9389,
      "hor": 9390,
      "link": 9391,
      "voice": 9392,
      "걸어": 9393,
      "수출": 9394,
      "스페": 9395,
      "없었어요": 9396,
      "##riage": 9397,
      "가능해요": 9398,
      "sleeping": 9399,
      "approval": 9400,
      "fully": 9401,
      "wine": 9402,
      "분실": 9403,
      "수학": 9404,
      "자고": 9405,
      "##iest": 9406,
      "##장의": 9407,
      "##란색": 9408,
      "stage": 9409,
      "defect": 9410,
      "active": 9411,
      "활동을": 9412,
      "figure": 9413,
      "Sept": 9414,
      "fund": 9415,
      "때도": 9416,
      "바빠": 9417,
      "지키": 9418,
      "##만한": 9419,
      "##드리고": 9420,
      "hall": 9421,
      "comfort": 9422,
      "section": 9423,
      "notice": 9424,
      "들어오": 9425,
      "사이에": 9426,
      "carefully": 9427,
      "비용은": 9428,
      "piece": 9429,
      "80": 9430,
      "나이": 9431,
      "##시피": 9432,
      "##음이": 9433,
      "진행할": 9434,
      "프랑스": 9435,
      "private": 9436,
      "Tw": 9437,
      "귀하": 9438,
      "들은": 9439,
      "예전에": 9440,
      "홈페이지": 9441,
      "##이네요": 9442,
      "##으시": 9443,
      "##단을": 9444,
      "##arr": 9445,
      "준비해": 9446,
      "인터뷰": 9447,
      "depending": 9448,
      "urgent": 9449,
      "loss": 9450,
      "##하죠": 9451,
      "##atory": 9452,
      "prices": 9453,
      "decre": 9454,
      "events": 9455,
      "인보이스": 9456,
      "2개": 9457,
      "봤어요": 9458,
      "선호": 9459,
      "조절": 9460,
      "##시켜": 9461,
      "##uled": 9462,
      "이번에는": 9463,
      "helped": 9464,
      "내용은": 9465,
      "strange": 9466,
      "scene": 9467,
      "update": 9468,
      "독일": 9469,
      "승인": 9470,
      "하며": 9471,
      "##가고": 9472,
      "##옵니다": 9473,
      "보내는": 9474,
      "보내준": 9475,
      "guy": 9476,
      "determ": 9477,
      "##ysis": 9478,
      "redu": 9479,
      "사항이": 9480,
      "element": 9481,
      "September": 9482,
      "nut": 9483,
      "맞지": 9484,
      "매운": 9485,
      "식사를": 9486,
      "신뢰": 9487,
      "요리를": 9488,
      "이전에": 9489,
      "편지를": 9490,
      "##lus": 9491,
      "wash": 9492,
      "Koreans": 9493,
      "부탁합니다": 9494,
      "이름이": 9495,
      "minute": 9496,
      "##priate": 9497,
      "device": 9498,
      "여권": 9499,
      "##cul": 9500,
      "##PS": 9501,
      "itself": 9502,
      "##ster": 9503,
      "alcohol": 9504,
      "precious": 9505,
      "다음과": 9506,
      "helpful": 9507,
      "##ension": 9508,
      "언제까지": 9509,
      "curious": 9510,
      "실제로": 9511,
      "역할을": 9512,
      "이탈리아": 9513,
      "bud": 9514,
      "뭔가": 9515,
      "박물": 9516,
      "상당": 9517,
      "전쟁": 9518,
      "하러": 9519,
      "##성에": 9520,
      "polit": 9521,
      "destination": 9522,
      "26": 9523,
      "Cont": 9524,
      "fat": 9525,
      "pool": 9526,
      "거지": 9527,
      "받았어요": 9528,
      "저와": 9529,
      "찾는": 9530,
      "탑승": 9531,
      "테이블": 9532,
      "페이": 9533,
      "##동을": 9534,
      "##uth": 9535,
      "sex": 9536,
      "claim": 9537,
      "##ieved": 9538,
      "남자가": 9539,
      "싶은데요": 9540,
      "무료로": 9541,
      "satisfied": 9542,
      "risk": 9543,
      "금요일에": 9544,
      "기재": 9545,
      "돼서": 9546,
      "되기": 9547,
      "##ental": 9548,
      "commer": 9549,
      "closed": 9550,
      "speaking": 9551,
      "earn": 9552,
      "직원이": 9553,
      "vill": 9554,
      "거라": 9555,
      "글을": 9556,
      "대리": 9557,
      "번에": 9558,
      "시설": 9559,
      "##이죠": 9560,
      "##구가": 9561,
      "pray": 9562,
      "사용하지": 9563,
      "avoid": 9564,
      "registration": 9565,
      "flowers": 9566,
      "Ke": 9567,
      "sour": 9568,
      "가을": 9569,
      "마사": 9570,
      "버전": 9571,
      "숙소": 9572,
      "있죠": 9573,
      "하여": 9574,
      "##회를": 9575,
      "##워크": 9576,
      "##내에": 9577,
      "##essert": 9578,
      "somewhere": 9579,
      "말씀해": 9580,
      "convenience": 9581,
      "Austral": 9582,
      "hy": 9583,
      "내년": 9584,
      "없지만": 9585,
      "예쁜": 9586,
      "작년": 9587,
      "전해": 9588,
      "접근": 9589,
      "##겠죠": 9590,
      "##ware": 9591,
      "##uses": 9592,
      "produced": 9593,
      "emerg": 9594,
      "받아야": 9595,
      "aware": 9596,
      "Viet": 9597,
      "##rew": 9598,
      "##alent": 9599,
      "##ache": 9600,
      "요청합니다": 9601,
      "Only": 9602,
      "amazing": 9603,
      "pizza": 9604,
      "Mar": 9605,
      "넘어": 9606,
      "바닥": 9607,
      "concept": 9608,
      "cheaper": 9609,
      "reflect": 9610,
      "issued": 9611,
      "엄마가": 9612,
      "professional": 9613,
      "pressure": 9614,
      "4월": 9615,
      "구체": 9616,
      "효율": 9617,
      "neck": 9618,
      "produce": 9619,
      "언제든지": 9620,
      "##해주실": 9621,
      "provides": 9622,
      "grandm": 9623,
      "Vietnam": 9624,
      "PC": 9625,
      "yell": 9626,
      "머리를": 9627,
      "번도": 9628,
      "충전": 9629,
      "힘이": 9630,
      "##성은": 9631,
      "deg": 9632,
      "가능할까요": 9633,
      "telling": 9634,
      "이상의": 9635,
      "entered": 9636,
      "hurry": 9637,
      "자세히": 9638,
      "patient": 9639,
      "bottom": 9640,
      "October": 9641,
      "Me": 9642,
      "dessert": 9643,
      "가치": 9644,
      "나눠": 9645,
      "외부": 9646,
      "응원": 9647,
      "편의": 9648,
      "##으려고": 9649,
      "##anch": 9650,
      "themselves": 9651,
      "2017": 9652,
      "surf": 9653,
      "미안해요": 9654,
      "드릴까요": 9655,
      "representative": 9656,
      "긍정적인": 9657,
      "상상": 9658,
      "손을": 9659,
      "##줘요": 9660,
      "##왔어요": 9661,
      "문제에": 9662,
      "45": 9663,
      "가정": 9664,
      "능력": 9665,
      "오류": 9666,
      "keeps": 9667,
      "distance": 9668,
      "5월": 9669,
      "그다": 9670,
      "내에": 9671,
      "늦어": 9672,
      "들었는데": 9673,
      "안에서": 9674,
      "##gar": 9675,
      "church": 9676,
      "##rences": 9677,
      "호텔에": 9678,
      "empty": 9679,
      "raise": 9680,
      "nervous": 9681,
      "obs": 9682,
      "새벽": 9683,
      "제발": 9684,
      "측정": 9685,
      "chose": 9686,
      "사람과": 9687,
      "규칙": 9688,
      "길이": 9689,
      "반영": 9690,
      "어쩌": 9691,
      "##like": 9692,
      "##ram": 9693,
      "##리카": 9694,
      "##안을": 9695,
      "##ending": 9696,
      "unf": 9697,
      "하나도": 9698,
      "학생들이": 9699,
      "explan": 9700,
      "surprised": 9701,
      "##iliar": 9702,
      "Actually": 9703,
      "1월": 9704,
      "프린": 9705,
      "##ges": 9706,
      "##았다": 9707,
      "##끄러": 9708,
      "chat": 9709,
      "미안해": 9710,
      "broke": 9711,
      "멀리": 9712,
      "방이": 9713,
      "봐야": 9714,
      "빠져": 9715,
      "수요일": 9716,
      "시절": 9717,
      "##겠지": 9718,
      "보내줄": 9719,
      "beauty": 9720,
      "건축": 9721,
      "적절": 9722,
      "콘서": 9723,
      "페이지": 9724,
      "##시부터": 9725,
      "compon": 9726,
      "상품은": 9727,
      "hobby": 9728,
      "Make": 9729,
      "dig": 9730,
      "max": 9731,
      "동시에": 9732,
      "매력": 9733,
      "베트": 9734,
      "이슈": 9735,
      "자재": 9736,
      "편하게": 9737,
      "##지게": 9738,
      "##치고": 9739,
      "##대학교": 9740,
      "##목을": 9741,
      "star": 9742,
      "생각하지": 9743,
      "이유로": 9744,
      "상관없": 9745,
      "domestic": 9746,
      "Sometimes": 9747,
      "Kong": 9748,
      "##셨으면": 9749,
      "##께서": 9750,
      "한국에서는": 9751,
      "forever": 9752,
      "sounds": 9753,
      "drawing": 9754,
      "베트남": 9755,
      "3월": 9756,
      "bow": 9757,
      "batter": 9758,
      "소요": 9759,
      "학습": 9760,
      "##식에": 9761,
      "##뿐만": 9762,
      "##itch": 9763,
      "##idge": 9764,
      "restaurants": 9765,
      "military": 9766,
      "massage": 9767,
      "smoking": 9768,
      "Put": 9769,
      "ahead": 9770,
      "것인지": 9771,
      "구경": 9772,
      "다운": 9773,
      "목소": 9774,
      "스티": 9775,
      "종일": 9776,
      "차량": 9777,
      "쿠폰": 9778,
      "##ging": 9779,
      "체크인": 9780,
      "다릅니다": 9781,
      "발행": 9782,
      "토요일에": 9783,
      "필수": 9784,
      "회원": 9785,
      "##rate": 9786,
      "우리를": 9787,
      "shower": 9788,
      "visa": 9789,
      "어디에서": 9790,
      "관련하여": 9791,
      "이곳에서": 9792,
      "realized": 9793,
      "successful": 9794,
      "existing": 9795,
      "crow": 9796,
      "반품": 9797,
      "에이": 9798,
      "##바이트": 9799,
      "##inary": 9800,
      "cars": 9801,
      "준비가": 9802,
      "across": 9803,
      "저녁을": 9804,
      "##해보세요": 9805,
      "업무를": 9806,
      "커피를": 9807,
      "considering": 9808,
      "analysis": 9809,
      "모릅니다": 9810,
      "방을": 9811,
      "보이지": 9812,
      "아기": 9813,
      "##도의": 9814,
      "##fortun": 9815,
      "고마워요": 9816,
      "귀여": 9817,
      "동네": 9818,
      "백화": 9819,
      "불량": 9820,
      "영원": 9821,
      "파악": 9822,
      "##MS": 9823,
      "그것에": 9824,
      "partner": 9825,
      "Canada": 9826,
      "그러므로": 9827,
      "network": 9828,
      "된다고": 9829,
      "실망": 9830,
      "한다면": 9831,
      "graduation": 9832,
      "hurts": 9833,
      "기능을": 9834,
      "카카오톡": 9835,
      "Gu": 9836,
      "주지": 9837,
      "##word": 9838,
      "##함이": 9839,
      "tool": 9840,
      "##idays": 9841,
      "좋아서": 9842,
      "##부터는": 9843,
      "회사를": 9844,
      "confident": 9845,
      "이유를": 9846,
      "missed": 9847,
      "그곳에서": 9848,
      "responsible": 9849,
      "topic": 9850,
      "이후에": 9851,
      "becoming": 9852,
      "간단한": 9853,
      "28": 9854,
      "ru": 9855,
      "그들에게": 9856,
      "배울": 9857,
      "여동생": 9858,
      "##lt": 9859,
      "##시를": 9860,
      "##쁩니다": 9861,
      "areas": 9862,
      "built": 9863,
      "growth": 9864,
      "##board": 9865,
      "counter": 9866,
      "관람": 9867,
      "반복": 9868,
      "웹사이트": 9869,
      "타는": 9870,
      "##식으로": 9871,
      "##rench": 9872,
      "아이들이": 9873,
      "showed": 9874,
      "이제는": 9875,
      "reserved": 9876,
      "corpor": 9877,
      "wondering": 9878,
      "약속을": 9879,
      "target": 9880,
      "8월": 9881,
      "sle": 9882,
      "sus": 9883,
      "wake": 9884,
      "거니": 9885,
      "목록": 9886,
      "물이": 9887,
      "소녀": 9888,
      "약을": 9889,
      "##볼게요": 9890,
      "##reme": 9891,
      "##cell": 9892,
      "resol": 9893,
      "actual": 9894,
      "symp": 9895,
      "만약에": 9896,
      "tastes": 9897,
      "wonderful": 9898,
      "scheduled": 9899,
      "되어서": 9900,
      "리더": 9901,
      "어른": 9902,
      "얻을": 9903,
      "영양": 9904,
      "##oting": 9905,
      "사람이에요": 9906,
      "보내드리겠습니다": 9907,
      "actor": 9908,
      "있으세요": 9909,
      "Bl": 9910,
      "bes": 9911,
      "##거야": 9912,
      "invent": 9913,
      "pieces": 9914,
      "Fin": 9915,
      "wide": 9916,
      "겁니까": 9917,
      "기뻐": 9918,
      "노트": 9919,
      "바꿀": 9920,
      "얘기를": 9921,
      "어젯": 9922,
      "차이": 9923,
      "##업체": 9924,
      "##antly": 9925,
      "exit": 9926,
      "사람들과": 9927,
      "sincere": 9928,
      "##해주셔서": 9929,
      "없네요": 9930,
      "입장": 9931,
      "지갑": 9932,
      "##받고": 9933,
      "##고에": 9934,
      "##위에": 9935,
      "##oms": 9936,
      "gold": 9937,
      "workers": 9938,
      "putting": 9939,
      "괜찮아요": 9940,
      "apartment": 9941,
      "academy": 9942,
      "9월": 9943,
      "DH": 9944,
      "못하는": 9945,
      "연주": 9946,
      "적어": 9947,
      "##ls": 9948,
      "##ply": 9949,
      "##케이션": 9950,
      "##inist": 9951,
      "flower": 9952,
      "일주일에": 9953,
      "어젯밤": 9954,
      "2월": 9955,
      "곳으로": 9956,
      "단체": 9957,
      "대략": 9958,
      "발주": 9959,
      "##eared": 9960,
      "lock": 9961,
      "relax": 9962,
      "Stud": 9963,
      "boil": 9964,
      "가족은": 9965,
      "marriage": 9966,
      "songs": 9967,
      "communicate": 9968,
      "cosmetics": 9969,
      "faster": 9970,
      "mouth": 9971,
      "rich": 9972,
      "기반": 9973,
      "남겨": 9974,
      "넣고": 9975,
      "브라": 9976,
      "조정": 9977,
      "##orld": 9978,
      "Those": 9979,
      "##ague": 9980,
      "Station": 9981,
      "receiving": 9982,
      "effects": 9983,
      "2년": 9984,
      "Hot": 9985,
      "가려면": 9986,
      "눈을": 9987,
      "말했어요": 9988,
      "이에": 9989,
      "책은": 9990,
      "패션": 9991,
      "향상": 9992,
      "##센터": 9993,
      "##rict": 9994,
      "##보자": 9995,
      "feet": 9996,
      "follows": 9997,
      "아닌가요": 9998,
      "효과가": 9999,
      "damaged": 10000,
      "대화를": 10001,
      "범죄": 10002,
      "실행": 10003,
      "##로드": 10004,
      "##iced": 10005,
      "lie": 10006,
      "delet": 10007,
      "##atever": 10008,
      "resour": 10009,
      "smooth": 10010,
      "중요합니다": 10011,
      "cultural": 10012,
      "created": 10013,
      "definitely": 10014,
      "솔직히": 10015,
      "Pay": 10016,
      "gar": 10017,
      "소통": 10018,
      "어떡": 10019,
      "적극": 10020,
      "태어": 10021,
      "태국": 10022,
      "하자": 10023,
      "##제가": 10024,
      "release": 10025,
      "heat": 10026,
      "처음으로": 10027,
      "힘들어": 10028,
      "소중한": 10029,
      "Tom": 10030,
      "fing": 10031,
      "골프": 10032,
      "동영": 10033,
      "오세요": 10034,
      "출고": 10035,
      "##to": 10036,
      "##ov": 10037,
      "예약이": 10038,
      "있었다": 10039,
      "caught": 10040,
      "increasing": 10041,
      "disappoint": 10042,
      "멤버": 10043,
      "비싼": 10044,
      "자랑": 10045,
      "##대의": 10046,
      "##우고": 10047,
      "##아버": 10048,
      "##hen": 10049,
      "dise": 10050,
      "harder": 10051,
      "어려울": 10052,
      "첨부된": 10053,
      "painting": 10054,
      "noodles": 10055,
      "아르바이트": 10056,
      "lat": 10057,
      "그중": 10058,
      "참조": 10059,
      "##crib": 10060,
      "##텐츠": 10061,
      "web": 10062,
      "2014": 10063,
      "appropriate": 10064,
      "returned": 10065,
      "금액을": 10066,
      "스타일": 10067,
      "Germany": 10068,
      "파트너": 10069,
      "Day": 10070,
      "average": 10071,
      "sitting": 10072,
      "기도": 10073,
      "됩니까": 10074,
      "알아요": 10075,
      "잡아": 10076,
      "##과의": 10077,
      "##대체": 10078,
      "connected": 10079,
      "rad": 10080,
      "갈아": 10081,
      "매장": 10082,
      "입어": 10083,
      "##cember": 10084,
      "drinks": 10085,
      "advice": 10086,
      "cleaning": 10087,
      "December": 10088,
      "Cur": 10089,
      "Was": 10090,
      "bri": 10091,
      "마련": 10092,
      "인쇄": 10093,
      "읽어": 10094,
      "정치": 10095,
      "주면": 10096,
      "##화가": 10097,
      "가능하다면": 10098,
      "##해주는": 10099,
      "구매할": 10100,
      "France": 10101,
      "상황에": 10102,
      "opening": 10103,
      "거기서": 10104,
      "스트레스를": 10105,
      "analy": 10106,
      "occurred": 10107,
      "modern": 10108,
      "Le": 10109,
      "도대체": 10110,
      "텔레": 10111,
      "##학과": 10112,
      "##roud": 10113,
      "그렇지만": 10114,
      "경우가": 10115,
      "tourist": 10116,
      "보냈습니다": 10117,
      "pan": 10118,
      "till": 10119,
      "역사": 10120,
      "옛날": 10121,
      "요소": 10122,
      "읽고": 10123,
      "지도": 10124,
      "load": 10125,
      "여기에서": 10126,
      "아무도": 10127,
      "가능한지": 10128,
      "prior": 10129,
      "35": 10130,
      "World": 10131,
      "마감": 10132,
      "오빠": 10133,
      "익숙": 10134,
      "##셨습니다": 10135,
      "##ences": 10136,
      "##eter": 10137,
      "사람입니다": 10138,
      "##aging": 10139,
      "모두가": 10140,
      "부분에": 10141,
      "excited": 10142,
      "yellow": 10143,
      "매니": 10144,
      "방에": 10145,
      "##이다": 10146,
      "##cher": 10147,
      "##under": 10148,
      "##atically": 10149,
      "##omed": 10150,
      "당신도": 10151,
      "경우에는": 10152,
      "돌아오": 10153,
      "호텔에서": 10154,
      "서울에": 10155,
      "weekends": 10156,
      "핸드폰을": 10157,
      "DHL": 10158,
      "dance": 10159,
      "kit": 10160,
      "tree": 10161,
      "기사": 10162,
      "봅니다": 10163,
      "봉사": 10164,
      "소리": 10165,
      "숙박": 10166,
      "적합": 10167,
      "##put": 10168,
      "##enty": 10169,
      "##anged": 10170,
      "sentence": 10171,
      "이용해": 10172,
      "oppos": 10173,
      "31": 10174,
      "June": 10175,
      "tight": 10176,
      "먹으러": 10177,
      "몇몇": 10178,
      "일요일에": 10179,
      "통과": 10180,
      "현지": 10181,
      "deb": 10182,
      "생각했어요": 10183,
      "행복하게": 10184,
      "버스가": 10185,
      "programs": 10186,
      "앞으로도": 10187,
      "금액이": 10188,
      "electric": 10189,
      "safely": 10190,
      "adults": 10191,
      "말아": 10192,
      "못하고": 10193,
      "보다": 10194,
      "연기": 10195,
      "짧은": 10196,
      "##hn": 10197,
      "##하기에": 10198,
      "10월": 10199,
      "curren": 10200,
      "소개해": 10201,
      "inconvenience": 10202,
      "Try": 10203,
      "데이트": 10204,
      "문을": 10205,
      "자리를": 10206,
      "장비": 10207,
      "저장": 10208,
      "##eth": 10209,
      "tele": 10210,
      "charged": 10211,
      "sheet": 10212,
      "가족과": 10213,
      "이해할": 10214,
      "모습이": 10215,
      "엄청나게": 10216,
      "normally": 10217,
      "분명히": 10218,
      "크리스마스": 10219,
      "budget": 10220,
      "Good": 10221,
      "die": 10222,
      "ju": 10223,
      "rid": 10224,
      "range": 10225,
      "놀라": 10226,
      "맞습니다": 10227,
      "빌려": 10228,
      "세부": 10229,
      "평균": 10230,
      "##정으로": 10231,
      "##역에서": 10232,
      "contacted": 10233,
      "Didn": 10234,
      "제공합니다": 10235,
      "카드로": 10236,
      "activity": 10237,
      "advertisement": 10238,
      "proud": 10239,
      "ut": 10240,
      "강한": 10241,
      "고장": 10242,
      "없다는": 10243,
      "유행": 10244,
      "입원": 10245,
      "##대한": 10246,
      "##림을": 10247,
      "##질이": 10248,
      "spot": 10249,
      "veh": 10250,
      "이상한": 10251,
      "holidays": 10252,
      "agreement": 10253,
      "neighbor": 10254,
      "patter": 10255,
      "rout": 10256,
      "바탕": 10257,
      "속에": 10258,
      "시청": 10259,
      "위로": 10260,
      "장면": 10261,
      "프레": 10262,
      "##지어": 10263,
      "##마자": 10264,
      "##졌어": 10265,
      "##arter": 10266,
      "##ison": 10267,
      "excell": 10268,
      "##ength": 10269,
      "propos": 10270,
      "contains": 10271,
      "bother": 10272,
      "스파": 10273,
      "애플": 10274,
      "##하니까": 10275,
      "##하셔서": 10276,
      "##프트": 10277,
      "uses": 10278,
      "재고가": 10279,
      "frequently": 10280,
      "IT": 10281,
      "cere": 10282,
      "rules": 10283,
      "고정": 10284,
      "됐어요": 10285,
      "등의": 10286,
      "목요일": 10287,
      "샤워": 10288,
      "소식을": 10289,
      "시원": 10290,
      "왔어": 10291,
      "확신": 10292,
      "##겠네": 10293,
      "##성과": 10294,
      "##되나요": 10295,
      "##드린": 10296,
      "waste": 10297,
      "super": 10298,
      "jobs": 10299,
      "salary": 10300,
      "Once": 10301,
      "공항에서": 10302,
      "느낌이": 10303,
[...]
